+ا
+ك
ب+
+هم
+ات
+ي
ل+
+هما
+نا
+ن
+ها
+كما
+ة
ف+
+كم
+كن
+ت
[بريد]
[مستخدم]
لل+
ال+
[رابط]
س+
+ان
+وا
+ه
+ون
+هن
+ين
و+
ك+
[PAD]
[UNK]
[CLS]
[SEP]
[MASK]
!
"
#
$
%
'
(
)
*
+
,
-
.
0
1
2
3
4
5
6
7
8
9
:
<
=
>
?
@
A
B
C
D
E
F
G
H
I
J
K
L
M
N
O
P
Q
R
S
T
U
V
W
X
Y
Z
[
\
]
^
_
`
a
b
c
d
e
f
g
h
i
j
k
l
m
n
o
p
q
r
s
t
u
v
w
x
y
z
{
|
}
~
«
·
»
،
؛
؟
ء
آ
أ
ؤ
إ
ئ
ا
ب
ة
ت
ث
ج
ح
خ
د
ذ
ر
ز
س
ش
ص
ض
ط
ظ
ع
غ
ف
ق
ك
ل
م
ن
ه
و
ى
ي
ٓ
ٔ
ٕ
ٖ
ٗ
ٙ
ٚ
ٜ
ٝ
ٞ
٪
٫
٬
ۚ
–
—
‘
’
“
”
…
##e
##s
##u
##r
##ج
##ا
##ل
##خ
##ق
##م
##ش
##9
##4
##2
##3
##7
##0
##6
##1
##ي
##ت
##ر
##t
##a
##m
##5
##8
##ك
##و
##ن
##س
##ب
##ئ
##ه
##ز
##أ
##ذ
##ح
##د
##b
##i
##l
##d
##n
##U
##R
##I
##E
##X
##o
##k
##ص
##ع
##A
##S
##ط
##ف
##ى
##M
##F
##إ
##ة
##ؤ
##غ
##p
##N
##V
##O
##ث
##y
##آ
##c
##ظ
##T
##C
##L
##v
##h
##G
##ض
##g
##H
##W
##f
##B
##w
##ء
##K
##x
##D
##j
##Z
##z
##q
##P
##Q
##Y
##J
ال
في
من
ات
##ال
##ار
##ان
##لى
##ام
##ير
ها
##ري
##لي
##اد
أن
##ين
##ول
##اب
على
##اء
ين
##ست
##ائ
##ور
ان
##ون
##اع
مع
##تي
##اف
##دي
أم
##بي
##وم
عن
##ما
##اس
##اق
مح
هذ
##مي
##وي
مو
ما
هم
مر
##اح
التي
إلى
مت
##ني
##لك
##اني
تع
است
##يس
مس
##تم
##يد
أو
إن
مج
تح
##عد
##اج
##ود
مد
##بر
##قي
مش
نا
عام
عم
الذ
##يل
لا
##رب
أس
##رك
##دم
##الي
كان
##اي
مص
##كن
##وع
##بل
##اه
مق
الذي
##تر
##اص
##اط
تو
رئ
##حد
ون
تق
##لم
هذا
الى
##اك
##لس
تن
سي
##بد
عر
##اري
مست
##في
##عل
أك
##يم
رئيس
كل
##خر
##لال
هذه
بل
بين
تم
##سي
وا
##ضي
##مد
بن
بعد
وز
قد
##ديد
حي
هو
##كر
علي
##از
إس
ذلك
##وري
##شر
دول
مب
##لف
##دد
مؤ
أع
قال
##وب
فر
##وق
يوم
##ائي
يت
##ات
تج
انت
هي
تر
##هد
أي
##مل
بر
شر
##هر
##صل
##ادي
##طل
##لا
خلال
##ريق
جم
##بن
عبد
يع
حك
لم
##قد
##جي
سل
20
##قت
##زي
##هم
مخ
قر
##سب
##كي
##وف
أح
تش
##رف
##من
صح
##عي
##ثر
##اسي
##قل
بي
##كون
عمل
##له
##تب
بع
نف
أول
##سم
أر
##اض
تأ
سب
هن
##يف
##كل
أج
سن
##ارك
##ولي
##ثل
##مر
كما
##در
مك
تس
تص
سع
اع
مجلس
خط
##فر
##عب
نظ
عل
##وى
##تى
شرك
##ضاف
لكن
عال
##خل
##راء
حيث
تت
ري
تد
اح
أش
يق
محمد
إد
##بير
أص
بد
غير
##وس
در
##امي
##مال
##طق
بعض
جن
عربي
يم
##يني
##قيق
قط
##خص
لبن
قبل
##اعي
حكوم
يح
جه
تف
خاص
أخ
منطق
تط
مل
قو
حر
جديد
وط
مم
##لب
دع
وج
دور
##ابع
##وز
أب
نق
أحد
عبدال
اج
عدد
أف
حتى
حق
##ادر
شي
##كت
##امل
مه
جمي
أد
##اعد
منت
كبير
##فع
الله
##اول
أمير
حد
##جن
حس
##لق
##ائل
##ضع
##ثير
عند
##الب
##وج
##صر
فريق
أكثر
نه
مصر
##وت
مرك
نح
كر
إدار
##وان
شب
##وني
##تل
##ابق
##ظم
##طر
بح
ملي
##ودي
19
جميع
مف
ثاني
##مار
##ابي
دا
##ليم
حال
##وح
قي
##ذا
آخر
اجتم
يج
##ضح
وزير
أخر
##ند
إسر
أه
عد
نج
عملي
أمس
اقت
عق
وف
وزار
يكون
##نى
أخرى
##لاث
ثلاث
اخ
زي
نسب
دولي
##طي
##زم
##جل
أكد
خار
سوري
##افي
هناك
مي
سم
اتح
ار
##وار
##قر
أمر
ليس
##اعب
إج
سياسي
نفس
عالم
##وض
مدين
شع
##يب
##ائر
مط
مشر
إي
حز
يتم
##قع
مدير
##افظ
##ائم
متحد
جام
##قف
200
إعل
اتحاد
رس
##تف
مجم
##اهر
وطني
مثل
ثم
##ضاء
##ريب
##بح
طريق
يش
قرار
هما
لجن
##ارس
حول
شكل
فلس
مركز
##رح
##خب
كثير
منذ
تك
سعودي
اقتص
##رض
شخص
##وط
##يش
وقت
إسل
وس
لاعب
دون
مشروع
يد
يست
ماضي
اعت
انتخ
##لح
ول
##انب
ثق
##صف
##سس
مخت
رو
##قاء
ام
محافظ
عشر
جد
##شف
جز
##امج
هد
رأ
أضاف
قان
عدم
فلسط
أور
عراق
##ائب
##اث
بط
201
سابق
##قط
ترك
##وك
وضع
مشارك
##ضل
جامع
أمن
تحقيق
##ريد
رغ
يمكن
تب
قطاع
مسؤ
تخ
أحمد
تغ
خدم
##اش
أق
مجموع
الذين
ير
##سك
سبب
##يري
صن
سلط
##كتور
##ثن
لبنان
أعمال
واح
حزب
##وبي
حض
##فاق
##زيز
يس
مؤسس
دكتور
##دى
قدم
##اطن
##اضي
أسب
واحد
##حل
##فل
##اريخ
كوي
جانب
##رق
طبي
##تح
##ارا
##صول
إضاف
أرب
شعب
إلي
إر
نو
##ضا
أميركي
##كد
تكون
تلك
لي
##تاج
بلد
فتر
صف
##ويل
##رير
مز
نظام
ني
فلسطيني
انتخاب
إق
مالي
حل
إع
##ائد
لبناني
##الح
مصري
مواطن
هيئ
أمام
##ديم
إسرائي
أخير
مجال
أمري
##اذ
علاق
جر
##اتي
ملك
##فيذ
خلي
أبو
نت
مبارا
##تمع
##شار
##اسب
##علن
##اجه
طلب
##00
عالمي
حج
نائب
تنفيذ
##أن
مليون
تاريخ
##وير
حالي
رياض
##اون
##اصل
##افق
نقل
##طف
##ايا
اي
##هي
هدف
تست
حيا
##اقع
إلا
مختلف
##واء
بلاد
رب
إير
##الد
مجتمع
##احي
إسرائيلي
ولاي
دعم
إسلامي
##ابل
فرن
شهر
مقبل
مغ
##فض
نس
ذكر
ألف
إنس
قانون
قص
##وال
خص
حرك
خل
##فت
تل
رغم
صور
##مس
برن
اقتصادي
قاد
أربع
سك
كت
##ادل
فيما
علم
دم
سيار
شباب
طالب
نادي
شه
سر
وجود
دولار
مستوى
قام
فن
حكم
قدر
عمر
##آن
نحو
##شي
##ضر
خارجي
عندما
منتخب
اتفاق
دراس
عبر
وزراء
##ريم
إذا
دين
عب
مما
شيخ
كم
أغ
برنامج
احت
بيان
##قى
##وص
حين
سلام
تحت
آل
كي
حدي
أجل
داخل
مسؤول
##كم
جمعي
نظر
بري
أشار
سف
أولى
##قب
ضر
عبدالله
قن
رج
##ليل
لقاء
##اسم
##دام
##ائيل
لن
تعاون
##سر
بطول
##طلق
اجتماعي
وحد
جمه
تركي
##تمر
أما
ضد
أيضا
منظم
شرط
اجتماع
أعلن
قيم
دي
##هل
تعليم
عقد
مساعد
عرض
أسر
تنظ
هج
سمو
عديد
##بت
ساع
صحي
نش
إص
أمريكي
كتاب
دف
##زل
إجراء
سنو
مؤتمر
استث
قب
##زال
مملك
حسب
ذات
رق
سوق
##قبل
غر
تقدم
جاء
قض
خر
##تبر
حمل
قياد
هل
##مان
##طار
بناء
##عداد
##ريح
ثال
حرب
معل
وك
ثالث
##سكري
فقد
عسكري
##ستر
سيد
##بلغ
##اغ
موقع
الآن
حما
جيش
##صال
شأن
مقر
أوضح
داخ
##ارض
ته
ألم
إذ
وجه
موج
أيام
##طلاق
فقط
داخلي
تض
يؤ
جو
أعضاء
بدأ
##حي
##بع
سياس
حديث
جمع
استخ
##اهم
بلغ
10
##جان
##عى
مدر
مرحل
اش
##عم
##اطي
بحث
عض
##ارب
كذ
شخصي
يخ
فوز
##أس
تقديم
ست
شري
فني
أمني
الت
##مع
زياد
أرض
أسبوع
أكبر
##اشر
##طاني
أزم
##اهد
##ائز
مقابل
مشير
إم
يجب
يف
##اجع
واقع
نص
موض
##غل
##احب
مناط
قضي
كويت
كن
كلي
كلم
##ائق
نهاي
##ذكر
##ظر
يص
مهم
مكتب
تابع
إمار
محلي
معلوم
صالح
فرص
حقوق
مناطق
حسن
##شح
نشر
كذلك
زيار
دوري
14
15
##داد
مكان
لدي
##كس
تطوير
مناسب
نم
خبر
##روف
موضوع
رسمي
##ميز
تنظيم
أصبح
##اوي
رح
##ادث
خارج
لدى
رئاس
عرب
انته
حو
##بار
##يان
12
##تبار
عامل
دفاع
إره
##رد
ضمن
حضور
##عار
خصوص
##علق
طل
خمس
شرق
صاحب
أفضل
تز
##سط
تنمي
استثمار
مليار
يل
إعاد
استمر
لو
##الف
صب
ناس
روسي
بار
جنوب
رجال
يقول
##بيل
##جر
اتصال
استخدام
حاج
عود
نحن
قائم
وسط
كامل
إنج
مث
##كا
وق
##ولى
ديم
أل
معارض
##افس
##جد
مال
ذه
##اير
##ومي
أوروبي
##يار
إنتاج
##اكم
نتي
محكم
##ثناء
##قق
نوع
سوريا
مواجه
##ارع
معد
إسرائيل
رفع
نقط
نتيج
##وه
أمين
##غير
مسلم
دست
حص
##طفال
قتل
إنسان
بداي
رم
ارت
منص
كاف
فرنسي
عراقي
##وء
زر
إيج
نهائي
أطفال
##اصر
##ديل
جمهوري
درج
إبر
مض
إح
فعل
شهد
عبدالع
مشت
رؤ
إصاب
فع
بلدي
ألماني
ثقاف
رد
مشكل
وفق
##اتب
##ابط
حم
صع
##قال
كون
وطن
ثور
تقرير
##ضيف
صحيف
عبدالعزيز
##حاب
رفض
عين
##تن
##اهيم
عاص
وصول
حري
فتح
##خذ
مئ
بريطاني
##باء
ضرور
مياه
طاق
مصادر
أهمي
حف
أسعار
اه
##نت
##ائج
قادم
يأ
وان
عضو
دفع
##امن
مدني
وكال
كشف
اق
طب
مطل
حوار
نتائج
اسم
مستقبل
##سى
11
رع
دخ
##مالي
##قيم
يو
##ظاهر
مطالب
##هداف
لح
صد
قول
##ميل
بنك
صناع
رياضي
##غر
أنا
##تفاع
##ائع
##جه
خالد
##انى
إخ
إعلام
قيام
موسم
قاهر
تدريب
حصول
ارتفاع
تطبي
##تين
بير
##ؤل
لغ
مساء
##هدف
##ريقي
##اقب
موقف
ريال
##ارد
##ارق
##بدأ
أمم
مصدر
ظل
ممثل
##سن
تجاري
إطار
أساسي
##هز
##ثار
نع
مشاري
نمو
مؤكد
تصريح
أقل
##وقع
قل
##ؤون
صباح
استع
إعلان
قم
وصل
جلس
مشاريع
بو
25
سين
رأس
##تمام
حدود
مرشح
أبن
مدرب
شؤون
مباشر
بحري
18
محاول
##حدث
اخت
مبارك
عاد
##وث
جهود
رجل
ابن
##ليمي
شمال
حب
سجل
##بط
تؤ
حكومي
عاصم
صر
رص
مدرس
اثن
##كيل
سوي
لعب
##فق
##ظف
##جيل
##دير
شرقي
##خرج
مشترك
أرد
##ذر
جهاز
جني
زوج
يك
##شاء
أثناء
طائر
بينما
نصف
##أل
تغي
##ظهر
ساح
##الم
##وا
سليم
كتب
فرق
تحديد
##الى
بيئ
##يران
حسين
##اقش
إبراهيم
تجار
فكر
نجاح
##داء
دائم
##ازي
غز
ثقافي
##خدم
اعتبار
تغيير
رأي
يه
##سل
##قرار
##طلب
أهداف
إيران
بيت
محم
شيء
طويل
كأس
30
إحد
كيف
##اوز
##فير
أهم
##ثي
إقام
تعرض
مائ
مرض
دخول
منافس
جيد
أفر
كويتي
حماي
باسم
قضايا
##اسع
غربي
جماع
##طن
##ايد
تالي
يقوم
13
جول
##تا
اهتمام
##ضم
أست
عص
شعبي
ينت
علمي
تشكيل
اقتصاد
##لسل
موظف
هنا
قوى
إمك
أسو
رابع
رقم
##شفى
سري
تطبيق
##ائح
رعاي
مستشفى
##خصص
تطور
##تو
ابت
##ائف
دعو
صل
متن
علاج
فضل
برامج
أعلى
ظهر
مهر
وقف
جب
##اخ
خام
أجهز
يب
منتج
برلم
متر
فيلم
قسم
مرأ
##اور
اكت
دقيق
منع
##طاء
طلاب
ماد
مسلح
قضاء
##ساء
ميد
##واج
##هام
إعلامي
اذ
##احث
##اقي
تحد
سلم
تحرير
عائل
##حق
##وجي
تون
حدث
تقوم
سكان
##رى
وسائل
##كار
عمال
##افع
افت
##الغ
متابع
أداء
لقد
باب
مدى
حصل
نز
##شط
##ميس
فئ
عالي
##طيع
16
##حيد
##تمد
أمور
معرض
سعد
سود
قوي
سفير
صغير
إنشاء
كه
رئيسي
##تاح
يز
يمن
##ميد
حفل
199
حقي
تربي
أهلي
##تد
تعامل
وفد
خطو
##مين
نشاط
جزء
مهرجان
سوف
أط
غرف
أشهر
اقتر
حمد
ولي
##شل
إستر
كف
توقي
سعيد
واضح
##يط
إطلاق
##صار
استمرار
شريف
منح
خميس
تقني
عز
##ستان
##دار
عو
طفل
إداري
إسلام
##شن
احتف
##ابر
فهد
صحفي
تشري
طرق
مسؤولي
17
فنان
##دو
اثنين
مقدم
##اوض
إيراني
ضغ
بعيد
محل
##اتيجي
نصر
مسرح
ور
##شق
اس
##اوم
##جز
تكن
إنساني
منزل
ملكي
محط
توفير
تحدث
إصل
شبك
أحداث
##تقد
إنجاز
جنيه
بش
صي
بور
متوس
يعد
تدخل
مصلح
كهرب
حجم
وصف
دستور
اختي
الا
إحدى
عنوان
متهم
##ضاع
امام
دبي
عهد
أسباب
تتم
غد
##برز
بيع
##ؤلاء
هؤلاء
هجوم
مزيد
##خاص
##زام
جائز
##جع
وقع
سير
مهند
مصرى
يون
غرب
مواد
##وبا
##سا
احتي
ليل
متوسط
##تع
يا
نفط
أشخاص
نواب
مدارس
##ترف
##اعر
محمود
مذ
مباري
ملف
حقيق
أفراد
مراك
اعتبر
عقب
تراجع
##جاه
##جم
سواء
تعزيز
أسهم
##هير
##اضر
قرر
قنا
حادث
دو
اختيار
قائل
إستراتيجي
دخل
أصحاب
ماي
حساب
##اند
##ليف
##هور
##سع
خير
##مبر
مهندس
موجود
##غي
##لقى
حقيقي
حقق
##جاج
بيروت
أمل
تلف
##ادى
آلاف
غي
دار
##كو
ساد
مستشار
خس
نب
طر
مصالح
قاعد
قليل
قطع
خليج
حرم
تأمين
##يص
وظ
سبت
رسال
تواصل
طرف
خلاف
معدل
##بدو
أسواق
##برى
##وسف
##لكتر
قريب
جل
شك
نساء
يعمل
كريم
فعالي
أبناء
مكاف
توجه
##فيق
يعتبر
صند
تنت
##ميم
صادر
##نع
دائر
سرع
دعا
نياب
##اظ
##باني
خامس
مبادر
اف
ضرب
معظم
##اكل
والد
آلي
بدء
موافق
مراكز
قانوني
##افر
تجرب
يتع
##الج
طبيعي
##ارن
أى
قلب
سعر
##احل
سابع
##ولوجي
##طالي
مقاوم
مسابق
صندوق
إصلاح
استف
##ادم
يومي
ربما
مراقب
صوت
##ضمن
أستاذ
جعل
لاف
ليبي
جي
يكن
ظروف
##اجم
رحل
##جار
قري
عناصر
اغ
##هيل
##وين
يوسف
أبي
نقاب
##ايين
مؤشر
##عاء
عيد
ناصر
أوسط
فل
تعد
اتجاه
سؤ
نقاط
معرف
سعود
##تش
قائد
إلكتر
شاب
مرور
قديم
##لام
هند
سؤال
احتر
تعديل
آسي
سيطر
استقرار
ثلاثاء
صناعي
أمان
طرح
مسئ
وحيد
سجن
##سبب
##سيس
50
أجن
##حب
شعر
##قدم
لما
مسير
تسجيل
إرهابي
جما
ملعب
مواقع
##عر
احتلال
استعداد
تنفيذي
خروج
شارع
إلكتروني
ديمقر
##ريض
بني
##ياء
مقرر
##بيع
إرهاب
سياح
جوي
##زيع
##جيه
ممارس
لقب
تمكن
مخالف
تدري
سنوي
أهل
##كيد
يوج
أوروبا
##هى
يقدم
##ازل
##اما
صدر
نور
مسي
##ليق
مار
24
رابط
شارك
كبرى
##هب
أراضي
فض
إل
تحول
توزيع
ايض
منش
معروف
رش
بقي
هام
يذكر
عليا
أث
التزام
ترب
سو
عنف
معلم
نووي
تصل
إخوان
رك
بدل
ياب
جاري
نجم
يعرف
تحدي
أخذ
تأثير
اتفاقي
تأكيد
روح
ميل
رغب
متع
ضمان
##ماء
##سام
بحر
مشاكل
انف
أساس
زع
تقدير
مستمر
مطلوب
خلف
مدن
##سكر
تسوي
أسلح
أموال
##ضان
خطر
سبع
لافت
إسباني
أبرز
تجمع
خليجي
إيجابي
عزيز
يصل
رؤي
مركزي
22
##طلع
مضيف
أندي
ملايين
صرف
##ضى
مساح
إنما
فور
##اعل
مرتب
شمالي
مفاوض
##باط
أطر
نار
ضبط
صعب
إيطالي
سلطان
قرب
فرنسا
##تماد
يط
##اقف
شديد
مناقش
حلول
21
ديني
أبوظ
جنوبي
أدى
تركيا
تمويل
إنتر
تعمل
##ئل
كار
مرت
معت
##رر
اعتماد
##ازن
##عو
قادر
ديمقراطي
سلاح
جمال
سفر
مساهم
لان
##انين
تحمل
اولى
##ذار
شرعي
أوضاع
لاح
انخ
##وات
##فس
يريد
أبوظبي
تلفزي
انتهاء
محاكم
##صي
وجد
عي
مبلغ
غذ
متو
##ريقيا
##سيق
قرن
عرف
##ثمر
##قاد
جزير
صحيح
قراء
معالج
برلمان
يسم
اسر
جمهور
روسيا
##فاض
شهاد
##اتل
حضر
لواء
عقوب
يغ
##نا
هلال
واشن
مطار
##وخ
جميل
واشنطن
يعود
فوق
كبار
##بق
واسع
صار
##عاب
تاريخي
يعني
##ماع
صو
أز
##غان
23
##وقر
باك
مقارن
تجاه
##شد
خطاب
##خاذ
تأسيس
متحدث
أطلق
حرص
زراع
شكر
انتخابي
##ريف
حماس
تعرف
ميز
تعتبر
مارس
سليمان
أبد
يأتي
##خم
كاتب
توجيه
شراء
بعدما
سريع
كلام
أجنبي
فصل
يور
غاز
##مى
يناير
##جو
حوالي
##اطر
##تمل
تقلي
##اجئ
فيصل
##تيب
غاي
خادم
حريري
##ادق
##وقراطي
منصب
تمام
بات
##سين
اتخاذ
##بلوم
دمشق
غض
##فيف
إقليمي
##ساد
يوجد
لماذا
إشار
##انا
##زع
بالغ
لازم
يبدو
ضم
##اشد
جنسي
اعتر
##ها
اشتر
سبيل
كوري
أصل
تجاوز
##هول
فق
##اطع
صين
انس
تيار
##وعي
يتح
تناول
صراع
يتعلق
مؤخر
##امر
##جير
أصدر
فاز
تقول
مواقف
دق
تنسيق
يمثل
علوم
##تلاف
مكافح
ضي
كو
أت
ناحي
مسلسل
اد
مان
شامل
##رم
توقع
متوقع
2010
غياب
عبدالرح
قوانين
سبق
##تان
بشري
40
سالم
##ديق
تور
بغ
استغ
معني
##سان
قطر
بتر
فرض
##اجد
##كور
أفاد
##ندا
ضغط
متعلق
##دري
##نان
إعداد
##كري
بان
عث
##قبال
موعد
معهد
مقال
اض
زمن
إف
100
فان
اسرائيل
سياحي
ربع
صحف
احتجاج
عقاري
انطلاق
كيل
مسأل
ملاح
مطر
##اجر
مون
عادل
##هار
تداول
مستثمر
متح
أربعاء
إنترنت
##وش
كمي
جور
ديموقراطي
متخصص
سادس
اتهام
##كى
إجمالي
26
مفر
##اصيل
سوى
حفظ
عش
از
ممكن
##ليزي
بعث
مصاب
إصدار
198
أنشط
إشر
تعي
وراء
##اقد
##ذل
وفا
##طفى
جماهير
متط
طيران
##ئي
أطراف
توقيع
##طلاع
تعادل
أسماء
قبض
عصر
##ارف
اما
يحدث
##ريل
يؤكد
عبدالرحمن
لحظ
أحز
##ظار
وفى
مستوي
استقبال
فشل
صيد
مشاهد
صعيد
ندو
ذهب
رمضان
شقيق
روي
لجان
تذ
نظم
تعبير
كهرباء
محدد
27
شروط
أمراض
شاعر
احتفال
##سد
طع
آثار
عدال
دبلوم
أولي
اص
طبيع
قومي
مسيحي
##تج
سهم
استفاد
2011
إمكاني
توصل
هز
روم
مهاجم
ضح
تحرك
مسئول
يحمل
افتتاح
##توح
##تام
سما
تعليمي
محيط
##ابد
قدس
مصطفى
مجرد
قصر
##اكر
28
رواي
تهديد
قت
شف
##افل
هوي
حفاظ
توقف
فرع
وكيل
تهم
ثان
إمكان
تحويل
##هاء
تحسين
عبار
فو
##كال
إش
ظاهر
نوف
يشارك
##ذي
##عف
أحزاب
سلبي
باحث
خرج
بطل
احتياج
تمثل
##توبر
##ترض
مسجد
تشهد
أكتوبر
##كام
أوب
تعليق
أحيان
اعتداء
مستقل
##ورى
##واع
##ويض
ثامن
صحافي
##كين
نط
حاكم
طيب
مقتل
##كب
2008
مراجع
تعيين
2012
سباق
صديق
##صى
حلق
##دود
بول
شم
شدد
فلسطين
نفسي
##صد
##ماري
سعاد
مخرج
أسد
تفاصيل
ثانوي
تحقق
أعرب
شعار
##ويت
معين
طبق
حاول
بنوك
صعوب
مجمع
جريم
سفار
يرى
فهم
استن
بغداد
تغير
دستوري
ألمانيا
أنظم
ماذا
##رو
هجم
##قاف
##وفر
يبلغ
تحالف
ارتفع
##فذ
ملت
فساد
##تلك
قبول
##طط
##اكي
مبنى
يجعل
##بحث
##علام
تبادل
##او
تكنولوجي
صفح
رحم
مجل
رسم
بطاق
ملح
شوار
عدل
أنواع
2009
صفر
رصيد
##ولا
طن
صفق
##بيب
أوراق
##لوب
قضائي
جبه
مكر
موضح
##قام
##خراج
إبد
يعيش
موسي
جود
داع
ميدان
جار
منصور
تصوير
تقي
ضوء
##فظ
35
خي
##ندي
دينار
197
نجح
رأى
شوط
لوح
ألعاب
تصني
إلغ
مسار
احترام
##ونيو
قلق
زراعي
أفكار
تراث
##اجب
مشرف
سق
تشكل
مديري
شوارع
التى
فقر
فير
حذر
##حاء
عظ
عقود
##غال
##غيل
انتقال
تأتي
##اؤ
انتشار
صم
ديس
##تمبر
زواج
لفت
قار
كني
شرف
اند
سبتمبر
شن
عقار
إشراف
ترتيب
##نائي
علماء
##آت
انضم
مأ
خبراء
##سيط
تث
لند
قاع
فران
فرح
سياق
مغرب
تسع
مميز
فح
جذ
##راض
تونسي
خليف
راشد
تتح
إيجاد
##هج
نادى
##ترح
خسار
بلدان
انخفاض
##هان
##جح
أنفس
اضطر
يشكل
##ثيق
واجب
أجر
يؤدي
تضم
هول
صفوف
##ظل
##ارير
##عدد
سرق
##ذج
2006
موت
##ترا
يحتاج
تسبب
مباحث
كيفي
قصير
طم
متأ
مفتوح
تسليم
مكت
هى
جون
##ابت
أصيب
عباس
زعيم
معنى
سج
29
خطط
##سال
دبلوماسي
مستخدم
يستطيع
يولي
منس
تونس
##مبي
##شاف
بدر
انع
جنود
##جاب
##كان
أماكن
زال
##غب
خيار
متقدم
أردن
##ائى
يتن
غذائي
أنت
أصوات
إلغاء
متظاهر
محاضر
تسم
##قاذ
يورو
بق
##اديمي
تبدأ
تشمل
##جاوز
##طان
31
طبيب
متميز
ورد
تقارير
رئاسي
##ائن
سودان
تخطي
ضعف
جهد
وليد
نقد
مسرحي
مبر
اب
حارس
طبع
بوش
استط
##لين
جرى
سكني
إب
تخصص
سان
استق
لندن
60
مهني
##وذ
ماء
##تون
مهما
أثر
196
##فا
تظاهر
سلسل
##يمن
استك
يزيد
يرف
سط
كام
استش
تعود
##دس
تشغيل
يمني
مادي
إسكن
ثماني
مين
##شفي
##اهي
##تس
دليل
فارق
موسى
باريس
##اين
متعدد
يحصل
##قيب
صيني
مخدر
##انيا
##تمال
ياس
ماضى
تكر
ديسمبر
مرافق
فند
##ئن
إنقاذ
الل
فبر
يجري
أطباء
فار
سمع
##كير
خوف
##ورد
مقيم
##نب
صحاف
أرباح
محام
بريطانيا
2007
أكاديمي
جث
معاي
##فيد
فرد
طول
خطوط
أسلوب
##ائري
نسخ
شح
مايو
##شرف
##صيل
##اهن
مواصل
مختص
سقوط
صرح
منازل
تركيز
لاحق
محب
يونيو
##ويج
تبلغ
قذ
نست
##ريس
فبراير
مراحل
مخاطر
رقاب
يصبح
موارد
متم
زين
معامل
عقل
طائف
##سير
لاجئ
##جب
تخص
قاضي
مول
ناج
طال
سائق
ليبيا
تتع
أولمبي
عميد
تلفزيون
جبل
تصرف
رف
ائ
تصويت
معرك
تبر
نوفمبر
بحرين
أردني
تكلف
ورش
اختبار
##طال
ظهور
##سون
يلت
##طى
تلقى
وطنى
خيري
معايير
45
أين
##هن
##اخر
غريب
أجواء
بشر
##انع
خري
##وقف
خطير
##ليب
عادي
2013
واس
أعد
أنباء
عروض
يبدأ
يبقى
انتظار
##تص
كث
وث
خلق
أهالي
نعم
اشتب
جيل
مخص
تبقى
نجوم
اغتي
يوليو
جزائر
زميل
جرائم
هجر
تغطي
تخل
سحب
أفلام
كفاء
امير
ذكرى
قرى
تقريب
ألا
قواعد
تاسع
##عيل
مبكر
##بيد
##به
تشجي
هر
أنصار
راح
ولد
استثماري
إسكندري
تربوي
مرضى
تواجه
تضمن
إنهاء
خطأ
##اطئ
##ابس
رائد
كتل
استهل
مركب
اعلام
استقلال
أقيم
##اصف
بنت
شعوب
عكس
ضيف
جورج
##هوم
معالي
درهم
##زاء
استطاع
تفعيل
انسحاب
استر
أمريكا
اعتقال
2005
لائح
ميزاني
##ورك
علام
ضحايا
##يمان
##ساط
أحكام
أقر
مهام
إست
شيئ
إذاع
عدو
##ابلس
##غلاق
##يع
يضم
تكريم
##اسل
جريد
شاهد
##تاز
تقييم
أبريل
زاد
آسيوي
مخصص
حاضر
اقتراح
سكر
##خيص
لابد
اغتيال
نر
رؤساء
أحمر
أصد
جامعي
انفجار
معسكر
بديل
##يز
أخل
استقبل
كنيس
شمس
يتر
##جأ
أبح
تشجيع
صيف
شو
رشيد
حظ
أفريقيا
مخيم
تكنولوجيا
##سيم
##يسي
إرسال
تقليدي
مخطط
صلا
استقال
فائز
نطاق
##عاد
تواجد
تفر
أحر
شبه
محادث
نيل
##هلك
تأهيل
تحتاج
مثال
هب
جسم
نجد
##فى
أغني
##يسى
مكون
##جيب
ناخب
سيما
أفغان
تي
وقوف
تعويض
تشرين
تلق
آسيا
##تار
سويس
##شئ
تبين
إضافي
يلعب
غالب
ديوان
أظهر
مستشفي
مطلع
##فور
جاه
ود
##وظ
##اكب
إخراج
برلماني
مذكر
خليل
أصول
مؤلف
شهيد
تؤكد
يملك
دب
طو
32
##زين
جان
##كذا
نهض
تشير
##قيل
أخبار
##طع
مظاهر
تخطيط
عضوي
جمل
أبيض
دمام
##بول
تمث
أنحاء
أوباما
تصميم
مرسى
نظير
عاج
هاتف
ذهاب
##وام
يزال
فندق
مهن
مغر
بقاء
مقترح
يقت
عما
##امح
سعي
وافق
انتصار
شق
احد
حلف
دراسي
##فاء
تجديد
مرمى
ورق
إقليم
عج
سلمان
مقاطع
لير
مفهوم
مريض
يجد
تشي
شد
شهري
تجارب
سماح
صلاح
كوريا
هكذا
خسائر
##صري
خض
رويتر
نوعي
يحاول
ثنائي
تعلم
مطلق
طوال
ثمن
##50
حربي
عمومي
زمال
مكرم
##ستاني
جزائري
اثر
أرقام
##ديو
تسهيل
سلع
عجز
أذ
نيوي
وعي
ذوي
أقصى
حيوي
70
##زق
تولي
بلاغ
طموح
إثر
توفر
نسم
ينب
متد
أسئل
أجانب
إغلاق
رسوم
احتمال
يواجه
مقاتل
استغلال
جوان
شهداء
تصفي
إماراتي
وثيق
نن
##زن
فتا
نيويورك
زمل
عاط
شمل
أبحاث
يستخدم
خلفي
بورص
داعي
جدد
لذا
حدوث
ضف
غال
ضروري
تدريبي
##سترالي
ذهبي
ند
يسعى
جدي
توسع
ألق
يعتقد
80
##مون
فكري
تقع
عماد
مزارع
مغربي
##ويد
نقص
يقل
تسعى
توجد
##زا
تزال
وقوع
محترف
ودي
كلا
ملابس
ربيع
ياباني
##مائي
نيابي
امر
عاش
خال
##طم
##شيح
##ادئ
##er
سامي
سد
##ناء
تميز
تفجير
تضامن
##سكو
إزال
##هران
وظائف
أسفر
تجهي
مهار
يحقق
##وغ
حبيب
قرآن
مبالغ
تهدف
منظ
رائع
اختلاف
تجهيز
حرس
##تلف
فنون
استعاد
##نيا
فائد
كوم
قطري
أفغانستان
##شال
زمالك
##هاب
وظيف
أولوي
ضغوط
تأهل
##ابيع
مدافع
ترشيح
##غرافي
نقاش
ارتب
بسيط
أعوام
إسماع
ثرو
أبطال
حوادث
عظيم
أسترالي
مرتبط
رويترز
تظهر
مازال
مناخ
رصد
سوء
كرام
اتخذ
كافي
تأكد
طرابلس
يابان
غضب
أسس
صال
فضائي
وض
##ريك
آن
منتصف
ربط
##عيد
عائد
##سطس
بوت
تقام
إسماعيل
ترى
ثابت
اعتراف
شورى
يحي
آي
زم
آذار
تحليل
إقرار
يظهر
ملاحظ
إحص
شار
صنع
##لل
قصف
##بال
لون
جرح
تصدر
أغسطس
جوائز
كهربائي
جدول
ساهم
أشكال
سهل
بث
تحض
عيسى
رحمن
حميد
إضر
مصرفي
إفر
برازي
مستهلك
تجري
سمير
مير
متس
محت
أحدث
برت
توافق
سياد
إيمان
محدود
صدور
اختر
متف
##ايل
عاشر
##افد
ضو
أدنى
مساف
متك
تدم
تعريف
سينما
واسط
وارد
142
##فز
مسجل
طائ
انتقل
حرار
مشهد
يطالب
##والى
شت
متب
شراك
##شى
##ازم
برازيلي
جراح
زايد
مؤقت
##اضى
تريد
استكمال
أحياء
عسكر
معتقل
##اؤل
ضخم
كانون
موجب
انضمام
طوار
##تيل
بيئي
90
عمان
جابر
يرت
زل
عقيد
يتحدث
ثل
مشاعر
تعاقد
##بى
ملتقى
مصنع
اتهم
مبادئ
ذى
وعد
متز
ترجم
تفتي
##طب
عمرو
مسا
صواريخ
حلم
إبداع
تفكير
ضباط
شئ
مرتفع
ينتظر
كول
فريد
يدخل
أغلب
مبد
تصبح
راهن
أسابيع
عتي
أقام
أبنائ
وهى
مبدأ
اشتباك
عوامل
لعل
##قاط
يضع
قضا
36
عملاء
منشآت
يتوقع
سبل
معاهد
فجر
ده
2014
2004
ثانى
غاب
يسمح
سني
سلوك
مصير
##عدام
تأجيل
معتبر
##تفي
##رين
محتل
مكاتب
قنو
جماعي
توتر
حضار
##ماني
تام
أثار
تمثيل
خطور
توفيق
تتن
صيان
مشدد
33
تاي
منمن
نظري
نبي
توصي
جراء
طوارئ
طائفي
حامل
194
كري
فنى
متنوع
يدفع
دولى
##قائ
##تمنى
ناتج
هش
صلاحي
طهران
##وسي
نزاع
تفوق
موجه
نموذج
ارب
##اعم
غل
باقي
ذاتي
عف
ختام
نفذ
عون
خفض
استئن
صهي
رفيق
بارز
فيديو
سلمي
إراد
كامير
تخرج
##حام
يقع
نخ
مبيع
##ميق
عدوان
أحوال
تستمر
أبواب
محاسب
توظ
تركيب
كلف
تلقي
واجه
بطر
اكتشاف
تورس
طعام
##هود
عط
تجد
بريد
مؤهل
مصرف
توظيف
##بعاد
امرأ
500
مدريد
انقل
##اهو
##حيل
يبحث
أدبي
تتضمن
تصنيف
##امب
شعور
تمي
زهر
##كرر
هاد
##فيض
مجدد
أشاد
مند
جندي
##هاد
ابتد
##صام
إنجليزي
تشريعي
مقام
فعلي
أخطاء
##تيني
تنم
##زر
متاح
بذل
يستمر
اختص
نقدي
حديد
حوالى
حلب
إمام
##ينا
نسائي
قياسي
أعداد
سرطان
وزن
أسط
مدار
سقط
فحص
يقود
سكن
يشهد
##ركز
##فتاء
أيض
تسلم
بترول
معانا
حكام
تعالى
قبيل
إضراب
تسي
##نف
فت
عبيد
استضاف
عموم
يتضمن
سيف
صادق
فاعل
يحت
##اخل
بشار
كور
عيش
أقرب
أهلى
منتدى
أدي
##واني
إعطاء
برك
مخل
أدوي
تسويق
تستخدم
خسر
أرسل
195
اتحادي
##تيح
اك
##بات
عمار
غالبي
##وطن
مقعد
مجاور
##حر
يهود
رسائل
مقدس
محامي
اختصاص
##تنا
نهر
شهير
أيدي
امتح
تعيش
##اليد
موحد
34
عربى
بابا
استئناف
حظر
استي
جوانب
تملك
كيان
مرس
زار
أقول
زوار
ميناء
42
رسول
مربع
حمود
##درس
مذكور
##وكي
دير
يشير
أدب
معن
حيوان
ألب
طارق
يساعد
متش
يعاني
داعش
ممتاز
##دون
توعي
أسف
##ييد
##اليب
ازد
استد
توالي
##خير
فارس
دعوى
##اوى
حاد
ضابط
صهيوني
فخ
شاش
##زز
300
سند
مارك
##تري
يعرض
جاد
أضر
دقائق
مجهول
طي
هزيم
##افذ
تقل
امتحان
48
مناه
كثر
ناجح
تتعلق
75
طرد
نض
ينبغي
رضا
متطلب
##هيد
اعتصام
حريق
نسي
نفق
تخصيص
تكوين
سار
نبيل
حن
هندي
سياسى
##ثق
آمن
رصاص
##عود
تلبي
فؤ
جوار
لج
يض
باكستان
قابل
انتق
ترت
تنظم
أخضر
غار
مساند
إغ
إذن
تشارك
تزيد
حدد
غام
##ذب
##يلول
انتقاد
أراد
استخدم
##on
إجاز
##اجأ
##صم
برميل
##تير
حفر
أدو
يهدف
رحيل
سيناء
استثناء
هيكل
استجاب
ألقى
سوداني
##اهب
تفتيش
اطلاق
نادر
نريد
2003
انق
ماجد
مالك
شئون
شارق
مستقب
فضاء
##طيف
37
لاسي
قوم
يهودي
يعتمد
يعقد
سيئ
يحد
موسيقى
فؤاد
وقود
مستوطن
لاسيما
##زان
موازن
##ضيح
سام
التقى
شريك
محتمل
38
اعداد
مثقف
حمر
ميداني
كرم
ذاكر
معر
دوائر
يشعر
بيد
بحوث
مستقبلي
موسكو
أفريقي
ثمة
تنقل
جنائي
استفتاء
زيد
اعلن
باق
وسيل
غني
##رع
امت
ناشط
##اضع
علا
تليف
عنصر
تحضير
أبلغ
تحكم
##ثف
##اضل
##وفي
عائ
استطلاع
فتي
##رال
مور
أرضي
قيادي
كيلو
##سيع
##لبي
انتح
##شلون
صدام
صاروخ
أرجن
مستحق
حسم
##غار
##اقل
برشلون
أسام
أساليب
##ابه
يعلم
##خفض
صدد
عناي
تلفزيوني
انتهاك
شغل
فوض
##احن
##ستي
يدعو
محور
أولاد
فردي
##in
جدل
تخفيض
##اعف
متكامل
راحل
##هو
فعال
محسن
ناشئ
جنرال
تفاعل
إيقاف
توسيع
##خال
تأييد
أعتقد
استح
دنيا
ناري
##ظى
أرك
جسد
قح
مجالس
##اقص
قروض
واصل
انطلق
مكلف
ابتدائي
##اريو
تمر
نفطي
##بس
يلي
أسود
خوض
##شاد
ساحل
استهلاك
ربح
بكر
مقاول
شعري
##وتر
باراك
قطار
يتأ
اعترف
تدمير
نظيف
##ومتر
كاب
نوم
تساعد
يفر
متفر
قصيد
جزاء
مروري
صدار
تذكر
اطلاع
مثير
استحق
يتمكن
حصار
درس
مماثل
عيون
سفين
معتمد
عثمان
حار
تجعل
سينمائي
خريج
اشت
اضطراب
##اديق
توقيت
قياس
هائل
منظوم
ناطق
صناديق
صعود
تستطيع
##تراوح
تؤدي
بيوت
##شم
سيول
##جاع
استهدف
تعتمد
توفي
##يا
بند
نايف
أصلي
أثبت
تشريع
خبير
فص
فيروس
##يمي
كمال
استخب
إجاب
تحتي
##كاب
جدار
حراس
استبد
عنزي
##زاز
انهي
##تزم
سهول
أشياء
كا
يقف
حافظ
نخب
معنوي
عزل
أضرار
ترفي
تخفيف
لجوء
أميركا
مغادر
حاصل
يخرج
كيلومتر
جدير
يشمل
فتن
شرح
قيد
65
##اليف
توازن
كيمي
برج
وثائق
صوم
كسر
زعم
اتفق
هواء
يتطلب
لاي
##ساس
يلتقي
كفر
آراء
##ضرر
موندي
رام
عسكرى
##كيم
44
##واجد
انهيار
إله
أزهر
صلى
يتعرض
اختار
يطلب
إقبال
##ناع
يعلن
مصارف
نيس
##an
##ترم
أيمن
يطلق
##مح
خيم
##لسي
ضحي
خش
مطروح
دوس
منور
يطر
اربعاء
##اتف
متطرف
إفراج
تصدير
تفاهم
حجر
ظلم
قادسي
حضاري
يحيى
أصدقاء
هاتفي
يرفض
يتمتع
مؤيد
مضاد
الي
2015
أغلبي
حافل
##الك
ولاد
وادي
##اوف
##ريت
شريع
قلوب
هندس
عميق
##وجه
إلق
شرب
فاط
يضيف
##قدام
تصور
أحساء
مقت
أركان
براز
تبرع
تعهد
لس
نفى
نقيب
##اتذ
##تبه
مونديال
عوض
تدريس
نرى
ياسر
هبوط
قاب
ريف
غرض
طف
مخاوف
بال
مواصف
جغرافي
شحن
أض
راي
ألوان
موسيقي
فرانس
إحال
سجون
بك
مرسوم
متحف
جروح
دل
كلما
عاجل
أيلول
تكاليف
خان
نهار
##عال
##تبع
تكت
صدق
انقلاب
تنموي
ائتلاف
أساتذ
تجنب
تردد
استعمال
متواصل
محضر
تما
خن
أوكر
صيغ
تنتهي
ماس
إدخال
تلا
عمق
سخ
ارتباط
فروع
مقبول
عطاء
مرج
زمني
يمر
انتم
وفاء
الإ
بيضاء
ميلاد
ميشال
اعتمد
جاهز
مهاجر
55
قتلى
إسرائيلى
تتو
أقدم
150
ديون
هامش
##اعى
##مز
قحطاني
ضعي
إخل
مبرر
أهالى
خد
أنط
دوم
غالي
مسب
##ونى
تأخر
وي
سمي
أقوى
أكمل
ترشح
تغلب
##داب
جس
##واح
ينص
متى
##صدر
فوضى
حبس
##انم
تعل
##حم
حشد
##قدر
تقوي
يسمى
أحب
محارب
تعب
سويدي
##ليس
جناح
معيش
جهاد
نأ
يذ
عثر
كسب
ذي
هدوء
اللذ
2002
ثلاثي
##وائي
تفسير
تحسن
تضع
إما
تطرق
##درج
انتهى
46
شمري
توحيد
محلل
41
حجاج
##ادن
##ساب
مستع
آب
أمريكى
باكستاني
##سف
عتيبي
إنك
تنوع
تمسك
غرام
يصدر
حام
وضوح
خضر
43
##20
تحكيم
ضعيف
برازيل
##بيت
اشتراك
أدل
مصانع
##قات
عظم
طالما
##افى
##اغب
إدر
إسم
يتجاوز
يأخذ
مسبق
مندوب
إعدام
##بعد
بواب
فاطم
متق
صيدا
39
##اطف
ميس
شام
يمنع
أبدى
إلقاء
مدرسي
تنص
أشرف
وزاري
2016
ليف
تكرار
##اطب
استحقاق
2017
مواضي
نعي
تموز
ديف
يمين
##بيوتر
حادي
نسبي
جيز
مواضيع
##or
عمري
##دق
تمييز
قتيل
خلايا
غادر
هشام
##يدر
مدرج
أجري
##عاف
أنني
##وقي
إيطاليا
ضيق
طابع
مكثف
##صرار
تعاني
بطال
اعتراض
مطيري
جاسم
كوك
عصام
ضرائب
يفت
تشكي
ذر
مقاعد
فات
مثاب
معاصر
حزيران
متمر
أقسام
فنادق
انخفض
##en
##غو
عاز
##تياز
##ذيب
برس
رواتب
تسمح
أوقات
يتو
اعتقل
شريط
دوح
##اقض
تقدر
400
##غالي
أخلاقي
طعن
##هري
جسر
ارتكاب
##ماوي
صمت
يعطي
إحر
00
اشتراكي
مضمون
حث
##رأ
جع
تسمي
طار
دورى
إسبانيا
جنس
أحلام
مستعد
انتقد
نهج
إيراد
رحب
اندل
روس
اعتقد
اجراء
قبس
تبني
تخلص
تحي
دراج
افتتح
2001
مباني
عطل
قتال
مانش
حروب
نيسان
حائل
معبر
يكتب
يحدد
قاسم
مراسل
إنكليزي
بنى
تقسيم
دماء
عنيف
مخابر
47
##جاز
نقول
فوج
نصوص
يفعل
##ic
التح
##ar
حينما
52
مطب
##شير
تفاوض
مساجد
يجوز
جواز
مقدار
حزم
##ائط
صنعاء
واق
يؤثر
كثاف
شفافي
قمر
مبين
تصحي
معارك
إث
حكاي
ليبر
تبع
لحود
تحاول
أجي
أمطار
مؤثر
تحري
آمال
مدخل
حقائق
انتقالي
شاحن
ذري
كرد
تحديث
تحصل
شائع
##بور
صياغ
تطالب
تبدو
توي
##es
استثن
يرغب
مدف
فيل
حاسم
##30
##اكس
##اعلي
إثار
لوي
صبر
شرع
متأخر
##بري
مرف
عجل
إصرار
تطلع
سأل
نهيان
سفن
معلن
ساعد
ملاعب
هولندي
أثري
##ينغ
أعرف
طاول
اكتشف
تمديد
سطح
شيوخ
إجر
مستفيد
##فيع
اللي
تحذ
ممر
تحتوي
اساس
شعراء
ضيوف
محرك
تأسيسي
حكيم
ماري
##اسر
نعرف
تتجاوز
زمان
متطور
51
أوائل
ينظم
بولي
محر
تعقد
##ايز
منسق
أجزاء
##لاء
والى
اقتراع
إسكان
دلال
حماد
إرشاد
مداخل
مفيد
منخفض
##ركي
ركاب
أصاب
قومى
54
ترامب
آر
تزويد
جلال
متج
تخلي
كارث
الان
إحصاء
موس
دوسري
رمز
إبل
ميلان
جاز
بيل
بدا
محقق
ترويج
جبيل
تأليف
عري
##نح
تحر
راغب
منتظر
تأخذ
غذاء
يقيم
تسديد
حسام
محاور
متزايد
يقام
دافع
##ابير
حالى
قس
شكوى
أستراليا
أجيال
رموز
دام
ثقيل
##اشي
تولى
تصنيع
إسقاط
عمد
افريقي
منفذ
وافد
صغار
لأن
##يق
سبأ
مانشستر
أيار
##نئ
أتمنى
ره
##ران
تتر
##قول
تهريب
صلب
درع
تحدد
نال
إنتاجي
ملم
افريقيا
##تز
قاتل
بروت
##نتون
شهود
واقعي
##مم
صحراء
##مج
بحير
احتياطي
يخص
أبر
استخبار
متمرد
##دا
تدفع
سويد
تعلن
49
قناع
لام
استشاري
مقرب
نظاف
حصر
فول
جذب
يستحق
##أى
##at
حمراء
تزايد
رون
##حان
طراز
يواصل
##نياهو
##اجي
يزور
امتداد
استثنائي
##ولد
هادي
مرشد
تصحيح
فرعي
أسرع
مهتم
إزاء
سيل
سمح
نتنياهو
بلجي
##طا
تساؤل
فائ
فراغ
##تاب
غازي
أيد
##فاف
يرفع
أوساط
سكاني
تقرر
ينظر
مساوا
##فرد
ركل
يث
تكليف
مؤمن
مائي
كوادر
##al
طالبان
خطف
شباط
أسرى
صدم
حمدان
لسان
##طلح
أحرز
انعقاد
جزر
تقبل
يجمع
يمارس
أدوار
##وها
إك
بحريني
راف
##قان
يمتلك
##كوم
حزن
مضي
طق
كلينتون
تعا
إسعاف
تليفزي
نزع
##بنى
مسئولي
يكفي
ستي
شيعي
رفيع
عشوائي
أسما
تهد
تدعم
شاه
تأثر
تنازل
يطرح
زاوي
كمبيوتر
خصوصي
أسي
تحفظ
أشغال
بشير
##باه
تدعو
تعني
تستهدف
ملحوظ
بيض
يوفر
##اعيلي
##تال
##نج
مضاعف
فوائد
##ونا
حوز
احساء
نيران
##تالي
غزو
متصل
تنافس
استشار
أواخر
ناقش
بخ
يكت
56
بقاع
يترك
تجاهل
أسبوعي
شير
##تبط
شهور
##صور
##يفي
مهدي
انقط
تنظيمي
انتفاض
##جيري
##عوم
عامر
##ويش
وجوه
سلب
##حى
تتك
حديق
ابي
57
عثور
شارون
حجز
تحفي
تؤثر
راتب
هرم
سداد
متمثل
تمهيد
سوداء
جارى
##ائس
عباد
قراب
امتن
تنطلق
نفوذ
##ينيا
شباك
قارئ
تقليل
53
طلال
عياد
جوهر
كاد
##الا
67
دوام
نما
مكسي
تدور
قصد
مغلق
أجاب
فاس
عملاق
اختتم
##كاس
نزل
اقترح
روب
ميدالي
##زيف
محمول
تلعب
مصرع
أراضى
##ثال
مصطلح
يخوض
تتأ
##زه
مات
##ذاك
##صلي
##جواب
آتي
##كاني
تتخذ
85
##ايس
مرز
يفترض
جري
ترخيص
تعذيب
##ونغ
صعد
استجواب
طيور
أريد
مثلما
مري
أوقاف
يدرك
يقدر
قبر
##اطى
صافي
يحضر
##يراد
تتبع
تتمثل
نقابي
منف
علق
هيل
مفاجئ
أسبق
اللذين
عقلي
اعتقاد
##براط
مبدع
بوس
سوفي
##امين
إعمار
يحل
عصاب
مختار
##زيه
مراد
نشأ
بطرير
يشار
تقف
يوناني
##اتم
ادعاء
تركز
نكون
تصعيد
نصيب
مرجعي
توضيح
زملائ
صيفي
إدان
استقط
##هيري
نصب
##طين
بوك
طيار
رخص
تنوي
إسماعيلي
جين
عريض
متل
جبر
##بيا
أجرى
##اصب
نيوز
يتقدم
رأسم
جاك
خطيب
##بك
مشوار
خاطئ
يهدد
يقال
يقبل
##صن
سلفي
193
تمكين
أون
يعيد
ارتكب
##وتي
حامد
ممن
يساهم
طاقم
غن
64
تضخم
##طيل
معوق
سلف
أسوأ
عرفات
ذكي
عارض
##اوب
لوائح
تغذي
تساهم
خفيف
انتماء
تتراوح
مشعل
وظيفي
غانم
متشدد
تحذير
58
مالكي
يدعى
قصص
فوري
نفوس
سماء
أمثل
يخدم
نهوض
##فتاح
علاء
##زون
##ثري
تمرير
سيناريو
تقت
وسطى
قبائل
طارئ
زجاج
##وضي
##افز
##زياء
62
ركن
فقدان
كريست
أسنان
تصدي
##ارى
بارد
سراح
تداعي
جماهيري
أخطر
يعبر
شيع
حش
مجد
جير
زائر
هواتف
كيميائي
ملاحق
عس
أعاد
مسح
فك
مصور
صقر
66
نيجيري
صبي
غضون
منى
منير
مستجد
يتناول
تدفق
حدودي
##قاب
التهاب
فاروق
أجور
تأخير
منز
راج
جزئي
مفترض
ثلث
دن
قفز
##غاني
حيال
مفوضي
ثوري
مسافر
إثبات
رياح
إيد
خب
استعراض
عبو
تزوير
تتمتع
يتس
##منت
دما
##شأ
صداق
زيت
حداد
إنفاق
جلد
أغلق
خلل
##ايش
عبور
كندا
استيراد
مأس
يحب
غامدي
انقسام
عنصري
##فلون
وقائع
فيفا
فرج
فلاح
مستند
##خين
اصط
فصائل
فاعلي
زب
تري
نل
وفر
دواء
معطي
##لندا
##فلونزا
ميت
يونان
04
نمس
حمام
منه
محرر
كردي
##بيه
نيك
يذهب
رامي
برلين
آفاق
منهج
مفاهيم
ذاك
عمراني
قذافي
##فن
عدنان
حرف
افتر
يناقش
بت
طفول
عزم
بنود
يمنح
تتطلب
ترجي
فلسف
كاث
أعراض
كائن
تلوث
قلع
##سار
امتل
منط
شكا
##اذب
لطيف
##شين
مبت
تختلف
قمع
يخل
مسائل
##أنت
لاحظ
جرحى
تسير
##he
فوجئ
نداء
يوناي
اعتذار
##واتي
لقائ
شبابي
سنيور
##تياح
وه
77
جنبل
ردود
جالي
وقاي
احتل
اجت
نك
ارتقاء
##اهل
خاض
يسجل
تايمز
نفاي
حديدي
يدعم
##ضحي
يونايتد
##وجب
##ئك
بساط
توم
سائد
عسير
250
مطرب
ضرر
شيك
انتباه
##دونيسي
جبال
راعي
رؤوس
ماليزي
طلق
خرط
تدهور
ذو
تسلي
تعاوني
مظل
هادئ
سبأنت
تهي
حاسب
وح
##سيا
هير
إمبراط
باع
72
سويسري
##باع
##غى
كروي
داعم
ذكور
جنبلاط
روما
تقد
مطاعم
أرى
ائتم
ميلي
خم
61
ترفض
أفغاني
ملامح
يختلف
إيا
تثبيت
يظل
تمتلك
قلم
لين
##اعيد
أشد
63
براء
قابض
حزبي
أولئك
خصص
##اءل
ابتكار
لب
أود
سقف
تمنح
أحسن
مطلب
تبحث
امتياز
سور
تعداد
تنس
نجيب
##جام
أشع
معالم
وفاق
يعكس
##ونه
متكرر
حرج
تزامن
مزد
شاء
##وزي
##برت
بدني
صراح
95
إنش
##01
لمس
يكشف
منشأ
سيتي
آداب
يعان
##شيط
##قود
مناهج
دفاعي
منطلق
استعان
##زح
فخر
##وبى
مفروض
مفرد
رزق
يتولى
اختف
دان
تقاليد
يدل
مناصب
برتغالي
توقيف
باير
شيوعي
إنذار
قنابل
مفاجأ
##دب
قصيم
جدوى
شاي
سا
يضمن
أخلاق
نضال
68
تحرر
يسار
هار
##مداد
يرد
جوال
##وند
99
دروس
أوقف
##وحي
شفيق
آنذاك
ثوار
زرع
فرز
مركزى
تنفذ
أوامر
أرواح
ترا
##مدي
هروب
نواف
##جاء
معاق
ضوابط
كندي
##درالي
عصبي
يتابع
يقضي
59
##عيم
أشجار
معادل
##تيم
جنيف
191
رمي
متتالي
76
توزع
##امى
مضى
مشجع
أبعد
قيود
##رخ
ألبوم
موضوعي
مهل
تورط
ديفيد
وجب
أرجنتيني
##ظن
تعاطي
يهم
ويل
أبعاد
مكاسب
زور
مرح
مفتش
موزع
مستوا
03
##زى
قرض
لولا
نجران
انقطاع
192
خصم
يحتوي
سماع
أكل
تفقد
كارل
روائي
حصيل
يتخذ
ينتهي
تتعرض
بوتين
ميث
علاو
وص
وفي
استهداف
ابتعاد
قصور
##تني
الأ
داي
عفو
تطلب
##تفل
توافر
مرسي
تعطي
ضريب
شتى
##is
خزان
تفرض
منتشر
تهنئ
حرام
مصد
##اثي
هدم
شبان
120
شجاع
نزول
01
لحوم
طاهر
##ديس
مبع
يثير
موصل
أقباط
##دان
ترفيهي
##راد
إقناع
مواهب
تشخيص
هندسي
نعمل
##اوين
بلوغ
بصر
نوه
عاطل
معلق
فقراء
ذم
تشكيلي
يفيد
1998
منشور
رجب
##ماج
تعطيل
اقتحام
ساب
أحادي
تويتر
يتف
نبات
تساءل
طلع
##احظ
##قذ
مفكر
يان
تمنع
هرب
لحم
ستار
يسير
مقص
انني
##همال
رباعي
شجر
تكشف
حسني
بلا
تربط
نستطيع
حساسي
##وشي
إناث
قنبل
ترسي
بض
نظامي
إيف
رواد
##با
حذ
تنتظر
ياسين
71
عريق
رفق
باطن
مناور
أجمل
##ودع
جلي
إجماع
مقدر
يتحمل
مستقر
##سعيد
دمار
عثماني
أخو
متضرر
تدخين
##قص
##وغان
143
شريح
قيل
بضائع
تطرح
ناد
حمي
مجمل
عمالي
تقود
73
جنب
يقارب
نماذج
مجيد
دمج
متواجد
74
إحي
##it
##فف
سح
تقيم
يتعين
إستاد
تفيد
جناي
قاسي
هاشم
فقير
ممل
فضيل
حيدر
بورسعيد
محال
أفعال
مختبر
أعقاب
ليون
فين
مواكب
مهد
لات
حرق
زهراني
غناء
إبلاغ
تهدئ
لقي
ظن
##لزم
إحصائي
متغير
##شوف
زعماء
معتد
##برا
اجتمع
تفاؤل
ملاك
قصائد
أقلي
##مول
بضع
إخلاء
كات
##ra
يتوقف
تقليص
يتيح
يأتى
متبادل
نأمل
بندر
تستضيف
تظل
ابتداء
##لندي
##جى
روت
إخب
##وست
إحراز
انتحاري
إبعاد
##ويه
تول
أنف
ثو
صريح
تعكس
##طفاء
إبقاء
يفتح
خضراء
أغراض
بطريرك
شاطئ
78
توج
مواعيد
##باب
تألق
اوب
تأشير
مجاني
صحفى
نعيش
ترميم
أطلسي
مسم
مريم
استبعاد
دموي
يحر
راب
زيتون
استقطاب
عطي
حصان
عميل
فرانك
يرجع
يتق
يتد
تعبر
ترفع
أقوال
هاج
اختراق
حريص
##سيد
نافذ
##ازر
أمثال
هت
إعاق
تروي
هدد
جازان
الماني
إهمال
600
##كاري
تبوك
##ديع
مثالي
تتحدث
دعاي
استماع
شرائح
كرب
عائلي
حقل
ساخ
إط
أسماك
مرار
إياب
ركز
تتميز
جراحي
رونالد
استعرض
هاجم
خيال
زن
استمع
هدي
أغذي
هداف
مستورد
راد
##اريف
يوضح
ملائم
سول
يسي
دموع
اقتراب
1996
اطلع
عدا
ملحق
إلح
يخضع
##ثيوبي
آلام
أردوغان
تدريجي
باح
لاعبو
تراخ
منزلي
أضع
شكاوى
اكتتاب
يونس
إحداث
##لكي
انتشر
إسلامى
يتحول
استيعاب
##طور
رض
تمارس
##سبق
البر
إندونيسي
مظ
##طاف
##غا
ننت
إحباط
يرب
تهدد
ملا
##الله
أعمار
مساكن
ميليشي
98
الياس
مراع
سلوكي
أنقر
سال
فطر
تعميم
تقاعد
حسنى
إساء
صغر
أوسع
يعادل
##كوك
82
كاثولي
اور
تطرف
تتحول
مصمم
مكتوب
أشر
##ريبي
قرأ
أدائ
69
مشي
تتولى
يفضل
ممتلك
مقوم
تدابير
حاجز
خالي
##غرق
قمح
انش
شركاء
اتباع
باش
رسمى
استبدال
محس
فايز
##اليم
إحساس
نمط
دمر
مستحيل
انفتاح
كوكب
هارب
استناد
ضخ
##عكس
تحصيل
دباب
مراعا
عقول
جلب
جيم
مؤامر
صانع
خوري
سائل
ترح
يفرض
##بان
##غام
مسبوق
أضح
بلي
مستدام
يدرس
ازدهار
##لحق
نجل
أتر
فاضل
تجني
88
إعجاب
مصداقي
أصيل
إحياء
روماني
يحق
يدور
ساحلي
يستع
أمسي
81
يؤمن
انح
حجار
أخص
داني
##ادين
أديب
ثمان
مبني
تلمي
غرار
إقال
ناجم
##انو
ألي
سكري
##ثيف
تضي
يحتل
مدنى
تعدد
أصغر
تطلق
تكثيف
طيل
سباح
لق
##قاع
نجا
أمه
رافض
وسع
كبد
84
يستقبل
96
مزايا
##ضائ
إنت
دفن
رقمي
تجرى
كاري
معروض
هيمن
قوائم
مولد
حمز
أنهى
تهيئ
طور
##ضن
تصاعد
هولندا
مصنف
##ايت
مواليد
أسيوط
معاش
إنجاح
طلاق
سائح
محامى
إفريقي
##كك
##عن
##يلاء
مجرم
فال
سرور
كتائب
ختم
86
يفكر
تايل
يوف
تنتج
##قيد
مفقود
اتصل
يتبع
ينتج
عقاب
صليب
##ضب
أدا
ساخن
##ثم
تفتح
تأمل
##كالي
ماج
##ونيا
شتاء
حمص
يتهم
برون
أنور
رمزي
فصول
رتب
أكثري
يثبت
تجمي
يحظى
عابد
مدعوم
عذ
بس
خريط
خلاص
إغاث
إيصال
كومي
برد
حوض
ذا
##غرس
عضل
##صب
تمتد
كفيل
اير
إعلامى
تليفزيون
يشبه
أنظار
تمرد
امتلاك
محف
##سرا
مبعوث
يأمل
05
تتويج
يعزز
دارفور
روض
##خي
مستهدف
##ظهار
مخط
انعكاس
حسبما
أنس
يرأس
##عاش
##اقم
يعق
##ساءل
وعود
إصلاحي
97
يسبب
حرمان
تراثي
طوائف
##بو
زملاء
يشغل
احتجاجي
مروان
معقد
بلط
شرطي
زلزال
##عا
ليبرالي
تضحي
##ستير
برز
##ليني
79
التف
غو
أوكرانيا
طباع
##افسي
كوب
إطفاء
06
يعنى
87
معيشي
موق
##يطان
يحفظ
متعب
طلابي
علماني
بنا
##تماعى
تفعل
##صير
تثبت
هان
لويس
##كز
واعد
أغاني
1997
بنزين
مهدد
تشت
يسر
##ريج
عول
صام
نؤ
دراما
يصف
استقر
عناوين
تكمن
نجاد
امتد
##طبق
حساس
ترقي
83
ملموس
جال
تتمكن
سويسرا
مجتم
سجناء
تلي
إتمام
800
يتز
تكامل
مقصود
حتي
تجميد
##وارث
اول
##وتو
جواد
أعضائ
جوف
قرع
##وكول
رقص
سائر
91
قطيف
توثيق
##اجتماعى
تحظى
تخلف
مجتمعي
مبدئي
مناهض
مراه
مجاهد
ضاحي
باس
إخطار
رفح
باط
كذا
صياد
يرافق
بايرن
2018
خطب
تنافسي
أعطى
جمارك
خصوم
تقويم
صوتي
جعفر
مايكل
##سكي
حواج
تعقيد
أبيب
نشطاء
فاسد
##بطال
إيجار
مراهق
ريم
يتك
عدن
لوك
حوثي
هلالي
تعيد
##غرب
وزع
ترتفع
جثث
إثن
غم
منطقي
بكين
##ion
مكافأ
الاجتماعى
استلام
أكون
ألقا
يغادر
هموم
##ازع
تخدم
موب
أرز
ميادين
فقيد
تخزين
مرئي
سوا
تالى
كير
وساط
تفادي
حصد
خبز
غنائي
معرب
يستضيف
حدائق
علوي
أنتم
متقاعد
عماني
هادف
جمالي
##ليو
يصعب
بعل
خرطوم
بصري
يدير
##سلام
إفطار
نبيه
مرزوق
يرح
إخباري
##اكه
متمني
عروس
زائد
عار
سدد
##يرو
دمي
مشتبه
درويش
مخلف
02
07
إدراك
إنني
##ادف
مطعم
حواجز
تيس
داف
اعتد
تعبئ
أعداء
ينقل
كذب
##ارين
مؤرخ
عشاء
أقارب
يتحقق
ترحيب
روحي
ولاء
باقى
يستفيد
بيري
##مو
مرصد
تمنى
تحفيز
طقس
ينفذ
اطم
إبراز
أدخل
تكتل
حازم
شعبان
ناقل
نتمنى
ممد
تتيح
طه
ملتزم
أجد
تتد
##دران
سوبر
معقول
معدني
درب
##وسوف
مواسم
كاميرا
مآ
مرضي
مكي
ماهر
تلاعب
يرتفع
التحاق
وفود
كس
##يرا
مجري
ركب
أكراد
##امكو
مسمى
مخلص
##ونها
##تفظ
موان
جواب
كونغرس
كثيف
1995
مسعود
استقل
أولياء
##ربول
94
آون
مقاي
محظ
مجر
أند
متصدر
مكتوم
ترد
يتميز
ذك
حان
سارك
شاهين
متحرك
محتج
حرفي
معتدل
92
انج
بادر
آباء
أسفل
##عدى
يقرب
لاتيني
رادي
أدرك
مغامر
فاصل
وتير
##أنف
أشعر
تدرس
مفتي
هدايا
ساق
يسهم
عملائ
كوميدي
موضع
استئ
تحلي
مظهر
نامي
سهر
##يت
عمران
##ينو
##ترق
بروك
##مور
ينجح
##صق
مالى
وسطي
سحر
##مق
89
معتصم
مفوض
إظهار
تيم
سورى
تراب
عجمي
مسكن
يسرى
أرجنتين
عرقي
جيران
موانئ
عرق
كتيب
##تلط
غرق
يرا
صمود
##ديف
حقوقي
##كسي
عيان
مشابه
تخضع
احتفاظ
بغي
يختار
تنظر
لكنني
حظي
تنظيف
تراخيص
1994
ديب
يصر
محمل
احتراف
سبي
محاصر
##وتا
##ثى
صومال
تتوقف
ضمير
مخزون
##ازير
اندماج
أورد
ديان
أسوان
أفق
##طري
عشي
تطبيقي
يسأل
خف
توصيل
يحكم
مزرع
أمي
جيب
منفصل
فجأ
متوفر
فيوم
متداول
مقد
سنغ
قاطع
##اكا
أري
لوس
أجمع
متبقي
منا
مدي
أعظم
نعيم
أرامكو
بصم
تتناول
جلوس
##ro
حبوب
ترأس
ناب
رقي
بطرس
حسيني
بون
استدعاء
يدوي
نتع
منتهي
اندلاع
كولوم
موهب
1990
أديان
مكن
ثبت
وال
محتاج
بروف
1967
راس
توليد
منسوب
متطوع
عبدالل
##مالى
##كيز
رحيم
صاعد
أخرج
##هلي
إفريقيا
إمبراطوري
##ائص
تشعر
يقرر
اغتص
##le
احتجاز
أسري
##مت
عبده
هتاف
مشهور
##مرت
معرفي
##غم
##سح
لى
##طنبول
##صاب
متجدد
لهج
فرار
شفاء
حقيب
يقتل
سكرتير
تقارب
معادن
سافر
شل
تحريض
##عان
أوز
متفرق
متفجر
ريفي
إبداعي
مشار
منيا
تحل
##اتور
هجومي
عاطف
تعدي
تسامح
جمركي
بحثي
تسمى
##تيك
##اريا
احتفالي
مناقص
معتاد
رشي
فم
متعامل
فوزي
تأدي
انفصال
##اميذ
ليلى
مفصل
مذيع
ترسيخ
جدران
تلاميذ
إمداد
درامي
سمك
##ويلي
تبذل
سادات
تحريك
عظمى
جذور
استيلاء
مشاور
خشب
##دعي
شغب
تناقض
شاكر
زبائن
أمنى
سبور
اوباما
لاس
ابتسام
سبحان
مرتقب
تكي
توطين
قلي
##مئن
تجميل
خزين
تسهم
وائل
دوي
تنشيط
عاصف
##صاف
إت
إنماء
ذكري
مسن
حليف
هال
أجرا
مغني
معز
إدارى
سنغاف
ميثاق
نسيج
##قطع
رافق
قبلي
ودائع
إسطنبول
يتمثل
93
قافل
ارتياح
وسام
عبدالمح
عبدالح
##طاليا
كوارث
مانع
انتحار
متخ
فضي
نجار
موقوف
توع
تفري
عبدالمحسن
مطبوع
تعثر
يتب
قضى
تنشر
##جا
معاني
مكالم
علاجي
تحميل
فخام
لوم
اسب
ماروني
شوي
نقوم
##سخ
معمر
تقليد
ينطلق
يشت
خارط
اختراع
##حف
سواحل
إيلي
يستعد
مجهود
معماري
يعقوب
أتراك
يتعامل
احداث
باول
ذرو
##هاي
تأسس
##انس
عظام
صارم
برقي
تسوق
##ضار
كرسي
تفت
أوكراني
أوبك
يسقط
أسرار
نشط
700
نتج
##لط
تجميع
يتخ
##شيد
أسير
فيليب
هاني
محرم
رضي
مكسيك
عازمي
عروب
خت
جهل
استخراج
وكل
تتابع
جوز
فحوص
مدعي
أسطول
190
ينس
عبداللطيف
باشر
يتكون
##ائك
جوهري
باشا
إيقاع
مزمن
قذائف
##la
منوه
صفير
وضعي
باي
يتوجه
##وفا
منهجي
تشويه
جاب
##فو
تشاور
علني
بلجيكي
##دع
##صح
متواضع
أزياء
إسراع
تطهير
حراك
##سنال
يشرف
حقول
مرء
تموين
##شة
محفوظ
##هرام
تذهب
##انباء
الع
الانباء
واصف
يمتد
عاشور
تسيير
مدعو
رايس
تثقي
تهاني
أعر
تضيف
نهائى
حجاب
يستهدف
أعط
بائع
حداث
يفهم
استشهاد
اختطاف
أستطيع
ختامي
مزر
ثوابت
شبيب
##ترب
أصدقائ
##ابيب
سرعان
باه
يمنى
إكس
صاروخي
يبر
صحر
مروحي
عابر
ممنوع
جورجي
انك
تسرب
##احم
غري
##شك
أقصر
عنق
##فار
أنجز
احمر
أيها
##جلترا
رائح
معارف
احتياط
تآ
روبرت
عولم
كرك
ماجستير
تشديد
##كوب
مسر
##شان
أطول
استغل
##يلد
حقب
كنائس
سيدي
تسلل
##صرف
انفر
إميل
زو
مدمر
ذهني
عزاء
نوايا
##ليون
تزداد
يلقي
أضواء
##59
##الع
##ادعى
ذراع
خالص
كيماوي
نسمع
اميركا
تستحق
أزرق
ينتقل
يكر
مزود
##وعب
أمناء
بارك
يسمع
غول
حاس
مواز
##تتم
يلزم
مأسا
نزاه
اندلع
تعزز
شمسي
ستر
تذكاري
نصي
تفصيل
مقول
يؤدى
بيتر
صحى
شقق
08
نوب
فتوى
معادي
شعل
إتاح
توعوي
يسيطر
يوجه
رونالدو
نيجيريا
تبن
تتجه
شهاب
زيدان
ألمان
جذري
كالي
استيطان
أحرار
عاطفي
تدشين
##فان
حيز
1992
فائق
قف
ترحيل
بئ
رقابي
إثنين
ناقد
روابط
عزز
رود
##لو
إهد
##اتق
هنالك
نفي
##رز
غسان
موسع
خشي
##اطؤ
ابر
ريد
او
يتج
خصائص
كومبس
محلى
سرد
معاون
##وفيتش
##تاحي
بلال
رومان
متفوق
##هش
حصص
##كات
انطب
09
أضحى
تنف
كب
تار
##صاء
تجاوب
مساعي
اسك
حراري
أهرام
جليل
تحتل
تزوج
طلي
مستلزم
يهتم
راقي
اثار
ماليزيا
ايطاليا
مصل
##دراج
ممتد
برتغال
صبح
##زو
لاذ
فاش
ثمار
نازح
أهد
منظور
بنيامين
طمأن
اغتصاب
ماكين
مقاييس
حنان
مكافآت
تجدد
رأسمال
##اديم
سلطن
نسعى
عصور
##خن
خاسر
أملاك
نخيل
رئيسى
##لان
##تنع
زوجي
يقتصر
##هبي
مولود
مراسم
قاس
إفاد
أولمبياد
فائض
تترك
تلميذ
أوجه
جنين
كلاسي
تدقيق
تدعيم
غش
غطاء
##كريم
ضحك
تنب
الم
قصوى
فنز
ممدوح
مجزر
مستودع
نعلم
##re
##طائ
ابطال
مرجع
مزاد
تشر
جوع
##ئيل
أنابيب
يركز
##ظام
طفيف
رشيدي
تفاقم
نقي
تفهم
إسهام
مشرق
مستن
يزداد
تخريب
سكين
ناسف
بحار
عداء
البرادعى
تعتزم
كاس
أعباء
مئوي
طعم
##فد
تتوقع
##أم
لال
يحول
غنى
مشاجر
نقاد
توضح
معاقب
انتر
##وريا
مدفوع
ممرض
الأور
لادن
طابق
عبث
افتتاحي
خصخص
جدة
1991
أخبر
مقاص
ينتمي
سرير
تثير
متبع
خنازير
يسبق
##MT
عاتق
حليب
خيب
ديك
ازداد
##دمان
##أر
يفقد
يتسبب
متدرب
##ماس
حاز
اختصار
يربط
كاز
##هوب
تتحمل
سانت
##ونيخ
عبدالكريم
يغيب
مخاطب
أنطوان
##لمس
محكوم
أيس
أجند
وقائي
منصر
تسيطر
تاجر
ابيض
قطب
يتفق
خالدي
محد
جانبي
كوت
##زئ
ملحم
##كيك
مهجر
الأوروبى
نحتاج
انخر
يبذل
بسط
بئر
ميونيخ
ضياع
محمي
سمن
اختلف
أندر
تذاكر
##ليا
باطل
يسع
مفضل
تجدر
تستعد
هدى
جهر
ليفربول
##ورط
حلو
كين
##اقتص
##كيو
راكب
رمض
جريح
قدوم
اجتهاد
سلال
مدون
##المى
رؤى
فضيح
أعي
##غن
تيسير
أنه
موريت
العالمى
طبيعى
أليس
##ىء
مغترب
أصر
لجأ
حاوي
يجتمع
فائت
اختل
شروق
يسكن
براد
تقاطع
انتظام
دماغ
مازن
رخ
##فوف
خاضع
متفق
ساركوزي
منتجع
روز
دونالد
يفتتح
GMT
نصح
مشروب
ظو
نبطي
كاظم
##ريني
##قا
تؤمن
ناشد
قنديل
يقرأ
مطاف
إنمائي
خرق
##سيل
تبعد
اشر
رجوع
اسط
هيب
داود
140
تضاف
إيداع
أمتار
بروتوكول
هذين
عالق
أحاديث
أدلى
إهان
مقبر
دخيل
زعام
شكوك
تسجل
قاطن
##جاني
إلهام
وين
##اقتصادى
عرقل
يقين
الاقتصادى
مزدوج
يجرى
##أجر
عقيل
أيتام
إدراج
غموض
منفرد
منسوبي
تبرير
منعم
ميزان
تعتقد
فتاح
##el
جسور
فاشل
زكري
مفع
تجزئ
جيمس
ترتبط
أنما
مملوك
تناقش
##10
عارف
##60
إبريل
استقلالي
##دن
##اتى
إخو
مذهبي
ينبع
متوازن
مرفق
##كلي
انض
ثغر
كفاي
محي
مناظر
خدمي
قهو
ربحي
مطابق
مطران
منافذ
ثبات
تعلق
##عج
منق
انتقام
##ئاب
مشتري
مسبب
##بدل
فلب
معلوماتي
نوري
أعصاب
##كاك
مكعب
خيان
##جيج
حلفاء
كراهي
##صاد
ناشر
صوفي
ديار
مفتاح
غائب
انعدام
أخطار
يوافق
مسقط
متفرج
##سو
ينتم
تراكم
##ثوذ
##ئنان
دهش
رمضاني
أعل
##اتين
اخوان
مجان
أمد
حوافز
##واذ
أعياد
##احق
##ed
فادي
وكلاء
فيسب
يبت
أنلا
1993
يرتبط
دعي
جسدي
تصب
جولان
سفراء
فتوح
يتردد
رفاق
متزوج
أنج
##نين
يغير
إطاح
مناع
سعى
أوان
دال
محتوى
##تقي
رعا
بوست
أطي
شمع
طاع
براك
بؤ
توحد
إجمالى
معي
مشا
##et
الاف
تمارين
انتخب
ينعكس
ننتظر
منصرم
حبي
استحواذ
##زيم
صق
عباسي
مشب
بترولي
صباحي
هاش
أعلم
تهتم
لفظ
شرم
ميركل
متاجر
نبوي
استهلاكي
تطبق
##اتر
متجه
حمدى
صحب
منتظم
##ing
مبتكر
خضع
ميكر
أندري
##ورا
مؤدي
احتواء
قداس
فجو
وجوب
##انياهو
مقي
سمر
كردستان
صنف
بكال
ركود
حياز
##خخ
أذن
وسيط
بعلبك
يعت
تشار
ريت
عدوى
جسيم
فيتن
إجرامي
##صين
ذكاء
جهوي
##ou
1500
ليب
##وزع
يصب
متوافر
##غول
##80
تدل
استشهد
ضريبي
##مائ
رباط
مرجح
كادر
##ئم
اطمئنان
حرائق
نفع
ريح
خليفة
فارغ
مفخخ
أعلام
##سلم
توريد
يقصد
##قراض
مضارب
رما
هدن
مطارد
مرون
##بوط
لك
ترغب
يعترف
رعب
بلاستي
عرضي
مصن
يوقع
تدير
ناجي
تتف
##زف
هانى
كوني
##انيوم
كيم
سوه
يأس
جنح
حاتم
هبط
يشر
محن
اتس
ثقل
انطباع
غبار
مزي
فيسبوك
محظور
130
تأتى
##غيلي
أرجح
رافع
مبار
آمل
رجاء
تاك
انفاق
ينشر
بطن
هوا
غامض
تضرر
زاهر
##دياد
عشق
هني
##يسكو
معتقد
تمتع
صومالي
متأثر
يتغير
نتاج
فقي
فلي
عصري
وحشي
نزيه
##فاد
قتالي
تشبه
تشيكي
تقدمي
##لاوي
استفسار
صفا
##اصم
نتانياهو
صخ
تعم
تتج
موهوب
أبري
يحرص
أصابع
مفاعل
برونزي
تباين
كرواتي
ألك
تسري
صلح
أنشأ
جرم
##بيان
##اغي
إكمال
##جيز
فرسان
اللا
مكتسب
عجمان
شطر
ضائع
طوكيو
منار
هون
رين
وراثي
##ماش
زكي
احتفل
أرم
صابر
تشرف
وهاب
ازدياد
سوز
تعطل
غزل
##جال
شواطئ
شوق
##ازى
تفرق
جهراء
مدفعي
زكا
أخت
مضاف
##90
تطوعي
تتغير
نمسا
شحات
نقض
بلير
تباع
أسعد
خلص
عمود
تشغيلي
##تباع
مسود
أزواج
##اغو
تخوف
ناهي
قنصلي
ميكاني
اقترب
خرافي
جرع
موالي
خلط
أخي
دخان
مستعمر
##امو
##نس
عجوز
عابدين
##قفال
مصاحب
داو
استياء
معمل
عدواني
اعتاد
##ضحك
##ائقي
ملزم
خطي
##يريا
راجع
##اضب
تجسس
شلل
أبها
##تامين
##اهري
فري
تأجير
عنان
إندونيسيا
ضياف
أدان
أشبه
نقدم
قباني
إخلاص
زينب
فلاديم
شعبى
تبنى
أصعب
مزور
بقايا
تخصصي
##نتوس
تكفل
سجين
هنري
أبرياء
تعنى
بتروكي
##22
##st
كاميرون
تتعامل
بروكسل
##طح
##نيش
إعفاء
تفكيك
امتناع
أيسر
واثق
فلاديمير
كح
ذبح
تمني
ورود
غاضب
قديس
##عدادي
سنغافور
##هال
تصدى
يصيب
غنيم
بى
نواحي
حشر
##است
استعمار
معاين
##اود
تتهم
كاثوليكي
تتقدم
تستع
ازدحام
يتطلع
زكريا
##كول
##خلص
مثيل
دوافع
يتناسب
تعازي
بص
إسترليني
أتم
لغوي
يدع
180
تقضي
بطي
كريستيان
تصف
حليم
بكت
تعايش
##اتا
تشييد
تجريبي
منتدب
ترفيه
أتل
##شيل
مقطع
وهمي
##ويني
محتوي
##ديان
##يفر
نتحدث
ناتو
تحسب
بقع
صيام
خضوع
تصديق
##ol
إدلاء
متورط
##ايق
يورانيوم
شاغ
##يه
تقصير
اتجار
يطبق
كنيست
يموت
إفل
##كوف
كاليفور
حصري
نعتقد
التق
مذهب
تنويع
يغلق
##وهاب
مشيد
احترافي
غلق
محتجز
وثائقي
تحصين
ظهير
##نام
أمكن
خيل
أعين
أجبر
لأى
مرتكب
##ليبي
##جور
سوس
ثري
##امع
عبدالوهاب
مفارق
جاهزي
سويف
عدس
##شاب
110
حزام
فوات
سلك
عيار
مردود
كاليفورنيا
أرف
توب
أذكر
مترجم
ديمقراطى
##اى
##هق
ألقاب
أتى
عبري
##il
يتراوح
ريتشار
دستورى
##زيزي
قرون
يأت
كلاسيكي
احتكار
لص
حافز
يضرب
عائشة
عاجز
عالى
متنقل
فتحى
يلجأ
محترم
##وريوس
إيجاب
تغيب
سئل
بولندا
دري
##باح
توماس
فقه
كيري
أنتج
سعودى
##كف
إشاع
ديبلوم
تنتشر
اسي
##25
مأزق
##افح
##جون
استبعد
اخو
سوهاج
تلقائي
انضباط
ائتماني
حت
يؤيد
عبود
معيار
دعاء
يضاف
##لد
قاري
تكريس
بلجيكا
أؤ
##افيا
تجسيد
حقائب
رهن
##كمل
يسهل
ثي
علمى
يشاهد
فلك
استراح
تنجح
عيب
##ميش
ظرف
##اثر
##فلت
فاخر
صربي
التحق
ساكن
##شو
أرثوذ
ردد
تتواصل
ارتداء
##14
ليلي
فالح
بسام
انتظر
تقلب
##امس
قلبي
يجيب
نازي
مؤلم
استغرق
هاجري
غيب
فجير
رأسمالي
إتح
سكوت
نصل
لائق
مجدى
اكتمال
عواقب
نطالب
##ويري
فيتامين
صيدلي
عشاق
ابد
ظواهر
التقاط
مساءل
كابتن
لاق
الب
بيار
راديو
طاب
ألقي
سكك
مرخص
سلوف
دهون
##متع
قارب
أشقاء
مني
تصادم
استمراري
كال
##ورغ
ثدي
تصريف
تشدد
وب
##70
انشغال
يفوق
الس
عكار
دكتوراه
صفاء
قرط
جولي
يكمن
كاذب
بركات
سيسي
كونغ
منتسب
##بيح
ديبلوماسي
عواد
يتحرك
جهادي
يدافع
ساس
جند
أنثى
##nd
مورد
ديل
انتعاش
أرسنال
مثلي
ينطبق
هنأ
مليوني
يساري
##اتوري
##om
##نون
##هيدي
إنجلترا
رمال
منجز
مناخي
أننى
جاهد
بتروكيماوي
صدف
##اميم
علن
##هادي
أرجاء
استغناء
نبذ
بندقي
اكتفاء
معمول
دمياط
مليئ
فروسي
اصاب
قاسمي
مقارب
##ذول
إلزام
انجاز
أدباء
طفر
بيريز
اعتزاز
احتساب
1948
نوبل
حائط
أعيد
##ترط
صحراوي
مفاد
ترشيد
أحمدي
##ايلي
تحطم
يفوز
يستطع
ثر
كردستاني
كارلوس
عرش
قرني
أنفاق
بدائل
تنفس
##ثيوبيا
##بورغ
فصيل
ملوث
بذ
صفراء
أنفلونزا
كليب
نموذ
تقتصر
##هض
كبر
مشبوه
أسمنت
صكوك
ضواحي
قروي
##اكو
خلو
ناهيك
قبرص
عتيق
أصفر
يجلس
رشو
تتز
جبلي
نسيان
نموذجي
##طرق
إبداء
احمدي
تجول
فيضان
فقيه
ائتمان
تجسد
مرفأ
لوج
350
مسيح
مطور
زفاف
سلمى
##12
فاتح
سامح
كلاب
نصاب
ريان
شجع
عسل
نهب
اتجه
##فاع
سبيعي
##40
##زاع
نتم
مجازر
كيس
نرف
تسعين
انبع
هاشمي
فدان
##15
معنا
أكيد
غسل
1982
وصاي
مبذول
##انغ
صفي
جبار
ظلام
انفجر
قصاص
مجنى
تتوفر
##واجن
كلى
جوني
ولا
فسي
تطبيع
تشيل
هوائي
##قار
اتساع
تتحرك
##شع
بوي
ريتشارد
أطعم
منشود
يخسر
حقن
عريش
شين
زهور
حضري
جنا
زكى
اط
##ستون
دواجن
أسطور
مدروس
يميز
##زمع
مفاج
ينضم
اعتزال
ألح
##واي
إتحاد
##ادا
مخلوع
تذكير
مختلط
رول
أير
##حراف
the
ذريع
حنين
##ستا
أقدام
بوب
كركوك
انخراط
ضوئي
##فاوت
شغ
##ريقى
يسلم
يقلل
بهج
أقط
اعترض
سيادي
مصنوع
بيك
حيواني
تمهيدي
اقتحم
##ليك
مشغل
ليك
هواي
اث
##طأ
خيام
مانح
تقديري
مهرب
فه
بيولوجي
لكى
فاد
تسريب
يستغل
اخل
أوغ
مترو
##اندي
عصف
##ناف
يتجه
مصاريف
سطو
ألغام
توك
شرس
مصروف
تغريد
حقيقى
يصنع
يتيم
جعجع
مجهز
جوزيه
سى
##وكس
##كتاتوري
ستان
نصائح
منب
جوزيف
يتضح
أنشئ
حتم
انحراف
فواز
عفيف
ايقاف
فرنسى
##يرى
إبرام
جح
ملوك
رهان
استراتيجي
شمر
عان
شعي
كوال
خفي
عوائد
وأ
تعارض
مرحوم
إخفاق
حروف
شيراك
اختفاء
نافع
##ent
ضل
تحب
اشتراط
استرداد
عافي
وع
دوار
دجاج
دارس
خو
فيدرالي
قسط
تكاد
تستغرق
إشكالي
حلوان
أدري
##ch
جرأ
##rab
سخري
##زعاج
رياد
أفض
اختن
##حدر
كيني
تبرز
##بعث
يضطر
رسام
رضوان
##وسل
مقهى
احياء
أفارق
160
تتحقق
شاذ
##75
حارثي
غزير
عيوب
متسابق
يوفنتوس
أظن
بولندي
##تهن
مشتق
أعمد
أكرم
كورنيش
باسل
بوم
##اراتي
تحرش
##قن
مساس
تتخ
بريدة
كرر
تدعى
إبان
قوا
يلاحظ
شتوي
##ذن
علب
حسان
ظفر
مفاجآت
##جوب
تشلسي
تصنع
وول
صمم
بكالوريوس
##جيلي
بيس
تقيد
استقدام
أفراح
##ته
عزيزي
##غلو
يجر
إباد
أبراج
متص
تعميق
مسموح
جناز
إرساء
رز
##ثيث
تدبير
مناضل
يلتزم
يتصدر
لحق
انبعاث
كفال
يحترم
حجب
برم
هاي
استنكر
##اقط
تامر
حمى
##كلترا
أوقع
إجبار
حير
استاد
انسحب
جغرافيا
هيكلي
مؤسف
مصادق
خريف
##16
تدين
لأنني
قليوبي
ثمر
يقر
1989
تسريع
نحاس
صالون
إيرانى
آدم
مداهم
##فيري
##وفى
مجدي
مدرع
##بيلي
صبيح
ملازم
تتش
فيصلي
تفريق
نتوقع
راسخ
متعثر
ميق
مثمر
أعطي
نان
##صاح
بناي
قسو
##طوي
إشع
إنكلترا
يبق
2020
تحرص
أبا
##13
متعاقد
شوف
مرم
إيهود
تعاطف
اكتسب
نوا
أصال
تثقيف
لقاح
ذنب
يعتزم
فاق
##هاض
##ليز
عواصم
نخل
ضار
بلاك
سوقي
أثنى
برود
لور
##اها
سنت
يحمي
ريس
صرخ
آبار
يحافظ
رقيب
نضع
تجنيد
يحتفل
كلب
أدار
أنماط
اختناق
إهدار
يشجع
عبء
جاذ
##ضرم
يلف
متوجه
باز
مجرى
تفويض
صراف
طليع
اتضح
خيول
إذاعي
مزمع
انسجام
Arab
كوبا
مقياس
قهر
اية
##19
هدر
أسطوان
ميقاتي
اشتهر
تحضر
جفاف
جاذبي
نمساوي
مسائي
تخريج
منظر
أناس
تعددي
ماز
تعمد
ورث
يتصل
أراض
##باري
##ut
يحذر
##ct
مناصر
مايكر
نحاول
مقنع
متسائل
يكاد
##89
ماك
عدلي
سارع
طنطا
إلحاق
تعدى
اعتدال
يخشى
توري
##حياز
جرب
زهير
زحل
##آر
يكمل
تلتزم
ترسل
مشغول
فهمى
شاق
إتش
##طيم
قمام
تفضل
فدرالي
مفعول
كلغ
##لبس
تهميش
##ذان
بقر
أذهان
نفسى
سالمي
لياق
يشتبه
تصيب
أحال
تدرك
عاي
##فعال
استبداد
حمض
##ولوجيا
بهي
تمور
حلفائ
منصف
تسمم
إحدا
مقط
مريح
اكتئاب
غلاء
##نيك
جبران
1988
متفائل
طح
انتداب
يعالج
تكرر
##ذى
بلطجي
فاتي
كند
مرفوض
أنهار
##حداث
ماهي
موكل
أولمرت
حزين
مزايد
اللتين
يردد
دقهلي
صفاق
استكشاف
مؤس
انعكس
أرجع
شبيه
189
أوت
إدمان
أتباع
مكشوف
أنقذ
التزم
ننسى
يونسكو
أسل
فارسي
منوفي
تصاميم
##افئ
غداء
تخصيب
محفظ
ثمين
تستقبل
عطا
ضئيل
##وارد
صوب
##تفت
تسقط
انحياز
مارتن
إشراك
بروز
عزف
أوبرا
يلقى
مفرط
مضبوط
مبروك
لافروف
جوزف
دى
إدريس
بقري
معبد
أوف
##ترع
هيثم
إقدام
غزال
حني
تحضيري
##ri
ظالم
##فيا
##اعيلى
عاهل
جنون
إحلال
استيطاني
سوزان
رجع
أوليم
قوام
رابح
نووى
نشيد
طائل
طوق
آف
محذر
فرحان
فادح
أفريقى
أصناف
##as
تمس
استحداث
محاصيل
خور
أجسام
مخطوط
معان
##ئذ
##برغ
قاص
اكتفى
تتناسب
##ماق
##غني
تحمي
كشاف
أسقط
125
حمول
فيينا
يكلف
نسأل
نزيف
محسوب
مواس
نبر
كربون
1980
ينال
أورام
قبال
اهتم
بادي
يعين
أقف
##آرتس
اقام
##شت
إضاء
دس
بطء
تناسب
متنزه
رقب
غلاف
ندعو
إنشائ
##خار
إنار
عايد
##ولين
بأى
التن
##فيذى
أذر
حط
مدح
منام
إحسان
##تيكي
of
شيطان
تراوح
مزاعم
جندى
برو
تنتقل
راضي
مزيج
منبر
شارل
مزروع
التنفيذى
يترتب
يرسل
مها
فون
أجنح
يتكلم
##تاين
اكتساب
صواب
بلور
ثقافى
يبعد
سوفيتي
مستأجر
حياتي
ظلال
مصح
عنيز
زق
أعمل
حاشد
رشح
ترجع
قدير
يترأس
نصيح
تهرب
ذهن
يخالف
معون
قاضى
كفاح
تفكر
أيوب
تمريض
كع
أرجو
إخفاء
يتلق
كرامي
كوبي
ترجيح
تعترف
جمعان
فياض
##ضعاف
يضي
أكتب
شيم
يتواجد
تكتب
##ونال
أوسك
ليالي
تخلل
اصطن
مكرر
قدامى
يفسر
بدي
يجسد
يتلقى
دعاوى
لقط
##ظلم
مرموق
##ويلا
إشعال
باري
مستح
##اليل
أمراء
##us
مسروق
تسليح
تحكي
دياب
أعوان
##ناط
افر
ريش
ينهي
خاتم
عوائق
إلهي
جاف
مكمل
قذافى
لتر
يتراجع
منشط
تنقيب
بيني
##هرب
تاج
أثير
ملون
##اوت
##بون
بيش
أعقب
تعمير
يبرز
أبني
مخاب
سرايا
باهظ
رومي
محو
تشغل
##18
رى
رخيص
نطق
موروث
وداع
هياكل
نقال
خالق
دينامي
براون
أوسكار
##طرد
##حور
قرص
نمر
قاصر
بدوي
تمثال
غانا
افتراضي
##سندر
حشيش
جثمان
تكهن
مسيل
عسيري
ينصح
تنقي
أشو
فاتيكان
##17
صامت
يقترب
##خبط
احتكاك
##تمان
مطبخ
إفصاح
تميم
مخضرم
داء
التقي
طوني
عتب
موكب
مسفر
1986
##متاع
ساخر
نيكولا
دامي
معزول
فوتو
تشجع
تتسبب
حمادي
بيطري
إقصاء
ديكور
نيكول
عقلاني
Arabic
بوتف
روحاني
أسبانيا
متما
##ايخ
يلق
##يلا
تشيلي
ليت
التفاف
يروي
نيوزيل
##طاوي
##ارو
مقاهي
قوس
يكتشف
قمي
##شادي
يقطع
فيتنام
يتغ
فيس
فاكه
أمامي
مكسيكي
مسؤولو
اعتذر
##am
1979
##ادو
ندد
900
ألحان
توضع
##اتيح
ساحر
بهاء
يستدعي
أساسى
غسيل
بوتفليق
مفاتيح
تباطؤ
استمتاع
إفلاس
##جاهل
نعتبر
تماسك
واي
نعيمي
##AS
ماريا
معوض
##غرام
إكر
تدافع
##أب
تنز
تفرغ
عداد
برق
##ينز
مرد
عجيب
شروع
سوفياتي
يقظ
##حدد
##ومن
ليم
مائد
نصار
تسأل
نباتي
يتوجب
##ضاح
جونز
##بيري
امري
##36
##صالي
شيخة
أنفاس
برمج
حظوظ
رالي
##طئ
يتش
أوصى
اصطدام
##وسوفت
ويلي
هاتين
منتقد
محروق
##برع
مرجو
تتأثر
يميني
موفق
ممث
##تيس
مهنا
ردع
أميري
محوري
استغرب
تسليط
متضمن
ميلادي
خاطف
إجتم
سطحي
غراب
تدني
محافل
يتساءل
كشوف
استغر
جزائي
راقص
##28
يطلع
تين
خلع
يصدق
موسيق
ألكسندر
نير
##45
##انج
تسويقي
آرائ
فيزياء
تتوافر
فتم
منكر
##اسى
ساري
صباحى
انجليزي
##قلاع
فاتور
تبث
خضار
نكت
حولي
فراش
جرام
عيني
##دل
##35
رفاعي
كامب
كوفي
رشاش
برمجي
متض
##76
جاني
تقلص
استدع
إسكت
##وهر
تركى
خرائط
حصن
جيوش
رمل
صدى
غواص
كريس
إحضار
سماوي
غرس
رفاهي
مقيد
بالي
بديع
بسم
صليبي
استفزاز
##شا
##اردو
##لسن
مشاد
شاف
تعصب
اضط
التقاء
حضان
مؤسسي
نشب
استسلام
أثينا
تحفيظ
تشارل
مغاير
كد
ماشي
عانى
نوادي
عبدالحميد
يومى
##صيف
بود
مرتد
نبض
تشكيك
فخري
مستغرب
شرايين
##بدا
إعصار
متين
##هيب
فندقي
##بيدي
##سماعيلى
مجوهر
ثوب
موبايلي
منتدي
##بكي
الإسماعيلى
كولومبيا
يخطط
والي
اشتباه
قفص
كبري
عت
1973
تدرج
تستفيد
ليكود
طبى
مذبح
فواتير
لد
يتعلم
مولى
حبل
ترافق
بكاء
يخلق
مشايخ
دنم
رمادي
##هذا
##غط
فتحي
اللواتي
1975
##هولم
مفاصل
ثن
يقابل
امكاني
تضاعف
سحاب
اللاتي
شبرا
شفاف
حواري
مزاول
مزاج
مأل
مسموع
فواكه
نؤكد
خياط
هاجس
نشعر
تدوير
جورجيا
مضط
شامي
تريليون
أتع
##48
حتف
مصيري
##صيلي
مألوف
منعقد
التقط
سعدي
فلوري
أخصائي
معترف
##79
ارتباك
إشاد
مدعى
رحال
سولار
مجند
موسوي
متعمد
شمولي
##id
نيو
عرس
أعماق
##بوب
##اسيس
تسمع
تتسم
استب
سابك
ثني
منصوص
أذى
توأم
##يسور
إعار
توافد
خراب
حيل
سامى
عذاب
تبعي
ذوق
محايد
شوقي
تكفي
كيمياء
اعبى
فنزويلا
##صاري
مخازن
##ينى
منال
يبيع
غط
يرم
موز
ارتد
أغلى
وجيز
تكييف
##ادور
##ديعوت
##برتو
مران
خبي
بوسن
مغارب
فيلا
يديعوت
نحل
مبيد
استنكار
يضر
يتذكر
ميم
يعانى
عواطف
مضرب
مرآ
خاطر
خيالي
سوم
##تموند
لاذقي
متاحف
عايض
جزي
مرزوقي
هزم
تمرين
لاسلكي
اسكان
##ناد
مخزن
##مجيد
إقلاع
ماب
عوي
أضعاف
نغ
##شيف
نشهد
لوجستي
##اتير
زعزع
دائري
عبدالمجيد
نبدأ
يحرم
راش
تتل
105
##46
عصب
##ماركي
إنزال
##49
تتكرر
محصل
يرتدي
لايزال
##وكم
تخطط
##جنب
حاسوب
يرض
مغار
صحو
##وائ
##ماسي
غلب
يدعي
سعدون
ظهران
هونغ
ظبي
##ماشى
أكن
##نق
اصطناعي
جموع
##غوب
نزار
يسود
مديوني
دورتموند
أنطونيو
نصرالله
صخر
ممول
تحيط
انفلونزا
حثيث
شطب
فأ
##وجل
ارتبط
إعطائ
ابتزاز
مقطوع
مايكروسوفت
أسأل
رهائن
أعلا
حمدي
ثأر
والا
هاجر
فهى
تعترض
فيني
وباء
نعمان
##طانى
مستعمل
حذف
نابلس
تعري
ايدي
يرتكب
يتعدى
ناصري
بؤر
أبسط
1981
عزيم
مستبعد
ستيفن
##ابح
غور
تعز
أقاليم
##وجر
تعالج
تذليل
معقل
يرحم
فوتوغرافي
قدو
انشق
وش
تتس
مسدس
شافي
عمير
دوران
رصيف
ضاع
1984
قميص
مضر
تكاتف
تواضع
روبن
انتزاع
ينتقد
أفضلي
قرصن
تكتيكي
حركي
##صلاح
خشبي
صغرى
نوافذ
##ويف
انتخابى
عاليه
متخلف
بنائ
ترسان
تعاليم
معتمر
##ؤوس
لوبي
##26
##قتين
طريف
حتمي
مطوع
أسوار
##تحق
اشتمل
دشن
بروفيسور
عنيزة
0400
موطن
إعدادي
أتاح
##قاض
أئم
شبعا
خطا
يتدخل
أجداد
تنامي
##جرس
يرعى
اصطدم
##زوم
ينف
##سور
##ot
يميل
##نر
قذف
##ويق
##39
عزب
كابول
أعراف
اجتياز
450
احكام
محدث
نبأ
تحوي
حسي
منصوري
كوسوف
صيدل
يتسنى
##ation
يلحق
اذن
مستغل
مجي
يتمنى
واعي
أرصاد
##صا
##نو
تتعدى
مانويل
سيناري
سهيل
يتأثر
سامر
تشن
1200
##ينيو
وحي
مصفا
##78
معدي
##هون
تبغ
بعبدا
متوقف
عساف
##ميلي
##اغون
1426
يعلق
ثب
قير
فلكي
حرر
فرضي
ترابط
مرر
كونجرس
يغطي
ضال
اجتياح
موتور
##عماري
هوى
##افا
إعلاني
##ضاوي
قرطاج
مقار
##تصاص
زخم
1987
موازي
##تيكو
لبس
موث
تطعيم
أدعو
سبعيني
اشك
يعارض
ذخير
استغراب
استه
مقابر
##جين
مظلم
موسوع
رومانسي
أطياف
توغل
نعود
نصراوي
زمام
##فيتش
يسدد
ملل
##تباس
أصدق
ليبى
for
##وكهولم
جاي
بأس
متفاوت
##ig
##درى
يستند
خلوي
أحيل
##فيظ
قيادى
حائز
بحت
مرسل
170
تكلم
مذهل
وطأ
معجب
يدين
شكري
##ويب
واد
حاف
ثمانين
1970
بولس
نواجه
تجارى
أصولي
بنكي
تحطيم
جداول
اجر
ميكانيكي
##29
قراص
كوكيز
دوا
فهيد
شالي
قبلان
مؤجل
بطاري
مصغر
يولد
هيدر
قذيف
##iv
تفريغ
روان
عائق
بخاري
##ايع
أرصف
تحتفل
تشوه
##جلوس
استنتاج
أضعف
استمار
فيت
استرجاع
نافي
تايلاند
أطلع
تقاع
نشاهد
تبت
ايد
أثاث
خز
بنغ
نذ
كندري
عبادي
أنصاري
صراخ
##ad
مطمئن
روع
وليام
ساحق
##ضاعف
ممتع
ميشيل
يحلم
ايف
عبير
##38
مقتنع
أشكر
تبديل
ناعم
إجهاض
زامل
1427
حنا
اختياري
تداخل
##بث
اختصاصي
نتف
صدري
معضل
فظ
يبد
دك
كومبسهذا
##بأ
نبه
تمثي
تضييق
يوغ
فلول
تزي
شوك
The
اسل
نتح
##سيو
شنود
أحجام
عايش
نقبل
تساوي
طين
موسمي
يفصل
باني
طائي
يستبعد
أخطأ
يوقف
1978
اضطهاد
عازف
ميسر
مرما
قراصن
كاثوليك
تحاليل
معيل
ملاذ
هفوف
تبريد
إيل
بدو
عامري
186
تليفزيوني
تنديد
يطمح
تستند
نذكر
دبى
##لر
جلدي
هيلاري
ينوي
مظلوم
##نه
متجر
استعماري
طنطاوي
احتقان
تحتضن
عبق
نرا
متمسك
بطاط
أتوقع
موديل
يصاب
هراوي
إرث
وات
يفتقد
دني
مشرع
معاكس
تخوض
ساند
##كتار
قش
رحاب
يتنافس
أطاح
حنيف
قرش
تطوع
مرحب
تحترم
##هات
ريب
فاجأ
اختتام
توكيل
أحقي
اسقاط
متلازم
مذاهب
##قسم
مدخن
ورم
تسعيني
كابي
كينيا
خوان
إسناد
إدوارد
1985
مقاصد
##ارج
يصح
يصلح
كنا
ملحن
##اريح
جوفي
يحسم
بخيت
امتنان
صائب
أشعل
حلال
##لكترونى
نائي
750
مازل
تخلى
تقنين
أذربي
أوغلو
فرانسيس
مترتب
مخابز
ازدواج
نتطلع
خات
يحتفظ
لأ
اتبع
حقد
عصا
يقترح
كعب
يظن
##تيه
معجز
دانيال
فلسفي
عاشق
يعطى
تلقا
محرق
قبطي
امتنع
مفت
##سلو
عذر
تقاسم
هكتار
حبر
تمثيلي
مزعوم
إقفال
مسئولى
باكر
1429
تؤدى
كابل
مرفوع
تعافي
موال
بكتيريا
تؤيد
يليق
شائك
برر
ظاهري
أمضى
##افقي
يبرر
زراعى
رعايا
بذور
شمعون
##وتش
أقمار
غاد
يصور
ضياء
##ce
صوي
550
ممنوح
يعاقب
مدعم
عناء
مصارع
ترقب
رأسي
نقود
أمواج
مطول
##وبيس
بوع
نقف
انسي
مأساوي
ينقص
تقر
##فيل
##طوب
رماي
مريخ
كاريكات
نملك
تكاف
تنح
1428
##لاند
1974
يتواصل
##ونج
شاطر
ألبان
راك
تنتمي
نفعل
188
أخوي
فالن
انفصالي
اضاف
زوايا
طرأ
تلتقي
زوال
احتفظ
الإلكترونى
أكي
روك
يانغ
خطى
تنسي
راجحي
##هك
حامي
شكلي
عك
تنبيه
عبدالهادي
ربي
يمد
##دادي
تحافظ
ايم
تارك
قطن
تشييع
أسهل
استئصال
هجري
داوود
دينى
ملء
موريتانيا
تدرب
نشوب
##زامي
بلوي
تجتمع
##رينيو
##ماد
##عقد
تقطع
يرسم
أممي
وجدان
أقلام
اللذان
جلوي
##اعن
##21
ملع
يرموك
ترصد
تفاوت
أوسلو
مستش
توالى
تفصيلي
معطل
أسمع
احتفاء
متناول
عبدالن
زام
شيوع
الح
مسعد
مروع
باص
أوس
ألفي
سرح
تنحي
تدمر
واقف
##23
غمر
ثياب
منكوب
إدلب
##اهير
لحن
تتركز
ستريت
مورينيو
إمبراطور
ستيني
منتزه
نوي
تتص
تلاو
لف
عبدالسلام
انعقد
ابتعد
قنصل
جعف
تصاريح
لط
محبوب
احتضان
يستعمل
ازال
حى
قطيع
كوسوفو
شان
يشتمل
شبح
ينفي
##ابا
ابني
انتساب
إنتخ
ألمانى
فالنسيا
عوضي
أفي
لحد
قوافل
مجامل
##وسيا
عزت
##24
ممثلو
يتوافق
مخيف
##خلل
زحام
طقوس
ميول
امل
إفس
##افير
بطلان
##اغم
امتصاص
متناقض
منازع
فرنجيه
كمين
خداع
إعان
دروع
مضمار
كلامي
##صان
إيهاب
رومانيا
ركوب
يخت
##BC
خصيص
##لاش
ترابي
جمود
خاطب
إطلاع
ندرك
تشتمل
عجب
تزود
##صائي
شوم
##ur
عريس
أنقاض
##روا
##بلور
كامن
ثلوج
إقراض
مرغوب
##اطين
جعفري
إشكال
بز
عفوي
فلبين
يحسن
اسيوي
يستعيد
أقساط
##دوغان
دبليو
##ابك
خدي
رعد
قرين
أهدر
نسوي
##اتو
قوارب
يتص
متساوي
مضطر
مجاز
تضافر
تقتل
جلاء
سجائر
أقنع
مولودي
دونم
حاجي
انفراد
##وجين
ندر
##73
مأمور
تتب
##اذي
بلاستيكي
عبدالق
احتيال
115
##طاع
دأب
يختتم
مقدور
نثر
طوب
##جلاء
تعطى
رقع
##74
##سلل
فتى
إيواء
نين
تحذر
in
قوت
زيوت
نجف
مطبق
كى
مضايق
ديواني
صارخ
متعهد
تخيل
كشفي
ضج
يحتمل
تسود
يحيط
نبحث
خبيث
##لية
أؤكد
أوربي
تشابه
شركائ
##ليزى
يأكل
أينما
شاسع
##قطب
يشترط
تتسع
شيكاغو
كاي
##اريس
تمويني
لباس
سجال
مهي
ليبرمان
ثمانيني
كتف
اللهم
ستوكهولم
فلوج
منقول
نوال
شهي
عطر
تتفق
أعود
كونغو
آله
فاين
1983
لاتزال
##تانامو
##وديو
وادى
جيني
إنعاش
ينتشر
##يدس
تلو
كازاخ
KAS
وردي
مسطح
يونيف
تفاح
بقائ
تختار
عذب
حميدي
تايوان
لغز
توافقي
جليد
##وهم
سيرغي
##فري
تقرأ
انفعال
إقت
##افت
##ويجي
إز
غيط
فرات
شرعى
تتدخل
مراس
صخور
ادار
اندفاع
1976
حصاد
نابع
رعي
تشيلسي
ناق
##ديز
موساد
صقور
كاشف
عصفور
طغ
مذنب
فورد
##اطير
نرفض
لوحظ
تضرب
انتمائ
##اقير
ستيف
نقيض
##فاقم
غروب
ضب
يود
يشرح
زرق
رجح
إلزامي
فلاحي
دراي
سراي
إض
اتسم
أوعي
همام
أقوم
تشريح
##تعال
إلف
رهيب
أسمائ
يتسلم
استحوذ
استطع
مبرم
دماغي
كثب
سبورت
جيوب
نهي
أبدي
إنشائي
شطرنج
روتانا
خيوط
##un
حياد
يتكرر
##تهد
فرس
##اضن
سمكي
##مية
شوب
تختتم
مدراء
نغم
هزاع
أبوال
لقى
يجيد
يسمي
شرار
لوز
أوطان
أوص
نظار
##واق
فحم
سفي
##نيوم
يرك
مؤازر
ساي
جمر
فاض
##طير
تسلط
متنامي
يتسع
##ظيم
ينافس
فسيح
##ريكة
محفز
تعت
ناظر
يكسب
يمضي
حفيظ
تضر
##ter
تكمل
##ورو
##فورت
قرم
قضائى
تتراجع
نفاذ
يمس
ادراج
##كتر
متدني
يتأهل
مود
مكتمل
إنجليزى
خامن
تضخ
ايل
يتل
اشتعال
أقراص
باولو
يسافر
##وسع
بوز
إيس
وزر
ورقي
أكان
توتن
مرعي
وم
سولي
إخضاع
بدرى
وتر
انزل
فد
خلود
تنمو
دلتا
تعقيب
لصوص
رادع
مدد
هادى
مشاهير
أنكر
يسعد
دنماركي
تكيف
فود
طرابلسي
امداد
اقتناع
تكساس
يحسب
قصب
بلاط
مربي
كييف
سعري
تفصل
استند
حلي
حواس
أكياس
رقيق
مضطرب
فرط
برب
فابي
يتعارض
##قظ
متراكم
ينح
##op
ننظر
رخاء
##كلم
متخذ
هوس
موازين
وسائط
افتراض
##زج
##ناق
صبغ
ركني
متعلم
أروق
اخر
كواليس
توني
استشر
هولاند
يخصص
تدوين
منحل
أحذي
درك
يهاجم
ريك
ليث
وديع
ثراء
##em
تناس
تضليل
طبخ
ألفاظ
عبدالقادر
##سترو
##ثوم
ندى
##فيلي
##رقل
##طوس
يعط
اختلال
اختير
بروتين
بيروقراطي
فيزي
بوح
أبل
محصول
يكرم
نبت
مبادل
تبيع
حجي
حيادي
تجاذب
صفو
تحتفظ
لمح
وضح
كارد
زرقاء
ملأ
##ag
عبدالم
مستو
امان
يوح
حلوي
108
اعل
محروم
مستحضر
احر
تسعير
منبثق
ملصق
توتنهام
##لول
فاي
عدائي
يراقب
موثوق
عراقى
منحرف
106
شعيب
تضارب
نحت
موفد
مناحي
تتطلع
قرآ
تهجير
##بذب
طمأنين
آخذ
نسق
نحب
135
ينسى
مثلث
دنمارك
##كوني
قصصي
تير
جانفي
متسارع
شيش
استدعى
##ندى
يمل
##اهيمي
تنبؤ
نزه
فطري
اشترط
قرد
##95
يستغرق
إيم
##سبورغ
احتجز
يهد
سلوى
زيم
عارم
سودانى
تقم
لوب
ناقص
1972
إحراق
بريدي
لاري
كحول
أقرأ
##ترى
خرب
2019
اقتصر
ميليشيا
يناسب
مأكول
مرسيدس
عريان
بوسطن
##فلات
مجنون
نقرأ
شعير
تستغل
##فال
يعول
تاب
أعير
تطويري
يستمع
قرا
إشعاع
##43
##ودر
متوافق
##تها
ألسن
حشود
شغف
تمل
ظافر
بنين
مواسا
تلجأ
نضج
تكتمل
انظر
شاغر
يستقل
رهين
تتق
##جس
غوص
سبعين
##اتشي
1960
شهراني
مرتضى
تيري
تونسى
يوفق
أشواط
ياسم
تعين
تسليف
صاي
تلافي
شرائ
تنعكس
تألف
جبن
بغدادي
سراج
صاب
ربو
لاين
مقلد
ادعى
إيفان
غالى
مدهش
انتزع
ويب
إرشادي
جريئ
معابر
تكافل
فى
وهب
بصو
جاسر
هاون
تقييد
روج
نزلاء
غدا
##نغ
تان
قناص
زحف
ويليام
##نة
منتصر
ضريح
بيزن
تستطع
بيونغ
غردق
##اعق
تسارع
##هاين
1962
تيل
كراسي
أبناؤ
فروق
أنبوب
RT
سون
مغناط
غلو
نفيس
##بنا
يرمي
خمسم
يتصرف
تسريح
دعائي
##وغرافي
دجل
مشور
إجلاء
سيم
محصور
إنجاب
لوف
متلقي
1559
أبرم
محاما
يعاد
حيثي
أناض
ياق
طلائع
ولى
سامسون
كولي
مازوت
##اسك
##وما
داهم
حاضن
عاري
##طيب
حلاق
حوكم
##طول
أفل
خاتمي
خصب
ابتع
شادي
تجم
غلي
غصن
##بين
تشارلز
دوميني
ياسمين
ادر
تنشأ
تفق
يوضع
ريو
تعقب
به
مغفور
غوان
إياد
نسيم
##im
انتشال
يكفل
انشقاق
إمس
عطف
مرحلتين
قيس
1977
رافد
صربيا
اخبار
##os
زج
تطال
بشرى
أحضر
جالس
تسلح
مبان
خوسي
##27
##بيك
تظلم
صقل
يستقر
##درائي
يقطن
جنز
منفتح
تكرير
##رزاق
##طدم
انفلات
سطور
قبي
أفرج
اسعد
جذاب
وعى
عقاقير
استعد
##قانونى
##تلر
حلمى
مثبت
##ميت
أونروا
زود
##تبس
ملقا
##ادونا
سحري
سجاد
تخلو
تأويل
قرآني
عبدالرزاق
القانونى
##اجاز
##ائرى
يخاف
##مش
سموم
نزال
نرويجي
ترسيم
هوليو
نود
وشك
نعد
ستين
أناضول
تشيك
استعمل
مرو
يوتي
تقترب
رئاسى
يتطرق
##85
صهاين
احتراق
أوزبك
##هرباء
متوفى
نرويج
عصيان
فلوريدا
##صوم
الجز
كؤوس
أندلس
مدمن
توط
لكي
احتم
أجساد
أرثوذكسي
يدم
أندريه
محول
تكفير
أطب
رطوب
مبرز
1971
فيتو
مسعى
لكهرباء
##اءم
آجل
##لهي
##65
جيف
غيار
سمعي
مرشحى
منتم
##موت
شرفي
إيضاح
منتهى
ينفع
تنشئ
##لحظ
بدائي
بضاع
فرانكفورت
قصي
شرائي
##um
عبدالمن
##وانية
الجزائرى
أيديولوجي
مارادونا
تويج
طاز
بنغازي
معاريف
##عش
شال
185
بشع
تساقط
حفيد
بريق
كاتدرائي
تمضي
أتلتيكو
ملاكم
اولمرت
جونسون
اسيا
خاصي
تزكي
بلاتر
##ضج
متأكد
أرمن
##برج
فلبيني
إمساك
إناب
كرى
معاذ
كوميديا
عكسي
أوكس
ديكتاتوري
شايع
أصعد
مزعج
تكتيك
اسمنت
ينزل
ماكر
تسول
بنتاغون
##بياء
هور
تتطور
مرافع
تصد
دائن
ندم
نكن
يجبر
تجمد
جاس
مسيطر
ميكروب
اعتي
يرجح
فراعن
جيولوجي
هزائم
مزيف
and
توازي
يونيفيل
قسام
تعانى
سطر
اقتراض
إلفيس
منشق
خوج
خامنئي
تفريط
أذربيجان
نلاحظ
ألغ
ابل
أسقف
أوصل
يوتيوب
##ليغ
أقفل
روسى
مستهل
عمي
أحي
مصيب
انط
تستدعي
إيدي
لكم
1945
مستقيل
يستعرض
شمراني
عبدالرحيم
نزوح
إرب
ألحق
عبدالناصر
فروانية
أقصا
روني
أخري
نيجر
فاقد
الن
فتاوى
رزاق
يتسم
فيروز
وري
##ينج
نتمكن
ألياف
مشهود
1968
ديلي
تود
ادع
ضبع
طما
كيلوغرام
برغ
صائم
عواصف
نيف
إنصاف
أنبا
صفوت
سيناريوه
تخشى
أليكس
نارى
أعشاب
تلاحم
فيكتور
بوادر
متنافس
1956
أفعل
كثف
البري
##ula
هآرتس
كروم
##NN
جئ
يصرف
ودع
دؤ
يحرك
يتوفر
مماطل
##ir
إحنا
أسلاك
اختلاط
نائم
أرقى
حجج
انفرد
تويجري
تسكن
نايل
نيب
لبث
هطول
استفهام
مناشد
دلائل
إنف
اقصى
نكب
حفري
موثق
فرحات
اعمار
تفكك
سكت
تنسيقي
حجري
اري
تويوتا
شيخوخ
أنجب
تكبد
##41
منافع
طعون
اشترك
نترك
استخباراتي
نكر
قماش
غينيا
موريتاني
تلال
متبرع
شامخ
يبتعد
تعذر
كرواتيا
غاني
مسك
فرانسوا
خافي
##47
مبتع
عاقل
يخفف
إفراز
مقرن
يستن
غوط
أرشيف
أربيل
##ماتي
يتألف
إجتماعي
ترتب
علو
أعطا
دعوي
ترسم
220
وداد
نكه
مؤبد
##جج
البريطانى
يبعث
تدارك
ضجيج
اقناع
إتلاف
بكركي
يعقل
تسبق
ليزر
تلمس
أنسج
شور
مخلوق
توحي
تنشط
مشع
راهب
##يرز
سياج
عراقيل
أكسيد
تنطبق
هضم
تعس
دمع
بوتاجاز
يرصد
سنتر
تنفي
تسفر
كوس
منوع
برام
أسم
##اهى
جامعى
يقاتل
يتقبل
غريم
مصحوب
##اضا
103
اسف
كارثي
يطل
فاكس
اكس
تغريم
خرطوش
أوراس
طرطوس
زبون
عرفان
موجز
كهر
##69
جنائى
تغلق
سلوفاكي
##اهز
##تلئ
صمد
جوجل
هواج
تخلق
ترتكب
ابتعاث
##ازيق
تفتقر
داخلى
معتز
كتابي
تحف
##تشي
عليان
تقتضي
يزعم
سينم
خائف
دافئ
تمزق
باد
دؤوب
اصدار
ينبغى
##ia
طازج
حكومى
تندرج
مفرج
يلفت
ضاهر
اردوغان
نطلب
مليك
##وليس
2500
دافيد
زهراء
تتألف
نحقق
ينكر
معدود
واع
بلوشي
ممثلى
مضامين
صبري
كرون
خجل
فسخ
##قون
وسطاء
نأخذ
تناقل
جويلي
##بيرو
مراسيم
يلتقى
نفهم
إيدز
جهني
اقتناء
امي
روا
صداع
سنتيم
يعل
منعطف
جرد
139
تمويلي
براع
##عيدي
تنصيب
تحليق
أوليمبي
اقتن
فرنس
مبتعث
عشائر
خوسيه
شارقة
ثلج
رياضى
سبسي
انزلاق
ثكن
حذاء
استطرد
يحظر
نبع
رادار
نجومي
لش
##جري
كره
تسرع
راض
بوري
##اتون
منض
تبد
بلغاريا
أدم
##od
بابل
هواجس
انتصر
عزوف
مقسم
جاكسون
##اندو
1430
مفرح
سنا
ينام
إنترن
منوط
دعوا
رماد
محض
نام
ديي
لطفي
أطروح
تقوى
تعجب
شرفاء
بإ
تزل
ضارب
138
صبحي
تولد
كنعان
إنكار
جابري
form
##يلو
متباين
اجتاح
يرتد
##غراق
##يطالى
##اذيب
240
يونيس
مكبر
تكاثر
روتيني
تقابل
أغنام
مغري
باجي
##تك
شون
استشارى
109
##تاني
تمركز
منيع
عصيمي
1952
أوزبكستان
أسمد
دوائي
الإيطالى
##تراس
##درا
ماريو
متنازع
مكسب
عطار
الحى
أتوبيس
جلط
ميخ
أعتبر
أحفاد
عمودي
هيفاء
##ايك
إحاط
##11
ذعر
سيمون
تواكب
##og
إرضاء
دهس
1963
مغربى
تواطؤ
خماسي
غولد
عاب
تاكسي
##جزأ
ترعى
منطقتي
##حاق
مجمد
توصيف
متعاقب
معدن
##ادري
##اتش
نيوزيلندا
تميمي
ماهو
##الط
مقصور
فهمي
عزام
يتبين
أضيف
In
حميم
تجر
##ازق
هيا
حروق
تستكمل
متسبب
##اتان
مشروط
تتواجد
كاهل
##ونوت
مفروش
عيس
متخرج
هلا
بنغل
انقلب
شراب
مصاعب
مرسيليا
عصير
زقازيق
رضيع
طابور
باخ
إبراهيمي
ثلاج
تبدل
غارق
فوار
ضلوع
مستوصف
هوليوود
روبي
طروح
يعترض
أيدى
1969
آه
تلت
##قم
سلس
تستر
الد
##اوغ
##يدان
رملي
تشاد
كابيتال
متحمس
كسور
عبودي
عبدالمنعم
سميث
تميل
عطور
قاض
شبر
كود
سرب
بلاستيك
يتصور
تراقب
أجنبى
أطباق
سخر
107
استدام
روائح
كأن
أوهام
مبرمج
فورم
إثيوبيا
##ائض
يجدد
عادلى
يصوت
صيادل
امن
سرحان
وجيه
خراف
استول
فلوس
فرنك
صبرى
تستعمل
متعاون
برهان
ندي
##ul
عرعر
شريان
##عارف
تغادر
ديناميكي
##37
خليط
حاص
1958
سويلم
رويلي
فلان
هاوي
أرمل
يشتري
ثناء
حربى
formula
يامي
بنزر
متوتر
شيف
عبقري
خارق
علاوي
عباء
دفتر
تآمر
نواصل
صحاب
##فورد
منحى
أوج
آش
يحيي
وحش
مجاري
كروز
رهب
1964
##ادير
مابين
يضيع
تغني
مستنقع
كاسي
سنغال
كوند
كولومبي
##ارم
صلاب
أنفق
فرعون
لسن
##انتا
هتلر
أكس
##حون
مرهون
تكافؤ
تجمهر
ثائر
استخل
إنتخاب
فيلس
جحيم
نسمح
أنجلوس
آني
عبدالفتاح
مرير
طير
أوكل
إضعاف
كارتر
##ودا
تعال
سيدني
تفض
تفشي
أحرونوت
سواد
تستوعب
تطاول
مناسك
معتم
##اتيكي
أنيس
ريادي
وهم
صايغ
نمطي
تخت
1425
##44
كوف
موريس
مروج
اشترى
##سيوم
كرس
425
عبئ
تطل
ظفيري
##ايب
تلاقي
هنود
فقهي
لاب
مصاف
أحجار
##اويش
أخفق
حسبان
يخلف
يصعد
فريض
يرضي
مبدي
منتوج
جبالي
تكرم
تشريف
دمن
دسم
يروج
طيف
اين
خضير
إكراه
نبقى
متألق
توطيد
إلحاح
هتف
175
طالباني
تتصل
كريستيانو
تمدد
مأدب
ثبوت
نبى
تصلح
سهام
سياحى
متماسك
يعجب
ربوع
سلوان
بورت
ركائز
أوراسكوم
يلبي
براغ
إري
##لاو
تفرد
باتريك
تصر
##68
##وكو
استلم
مسل
نابولي
نفكر
خلاق
حيلول
مساوم
تكدس
قسري
تلفز
فضح
ميان
تذبذب
##اغل
استيف
حمدين
فوزى
تنخفض
ذخ
متصاعد
فيلسوف
تتلقى
عفر
مرن
##قيبة
يسري
##اظة
مداول
تأهي
##قلم
ماكس
ران
أوفر
ساعي
استنفار
قدسي
تقلل
تتضح
يبين
مغناطيسي
روى
##حوذ
ترمي
بساتين
إشغال
يبدي
كيد
أغنياء
هين
عذراء
ويلز
مرعب
ذخائر
مستمع
سرطاني
بلطج
##وجد
##وتشي
حلمي
احتضن
والدي
جاذب
ألمح
تقصي
أضف
حور
تسلسل
يشدد
مسيئ
بورقيبة
يشيد
وثب
إثراء
أقطار
مستدير
اختطف
عامي
ينمو
بترون
خديج
نظرائ
ميغ
مختصر
متان
أحرق
كيب
سينمائى
##خوذ
أفهم
زلازل
يخبر
##ليكس
متوسطي
مدينتي
ماراث
حلوى
تتبنى
فقهاء
دواوين
ردم
دغ
يقتضي
##واه
تتوافق
محاس
بلغاري
معهود
تؤهل
فوسف
سديري
أودي
صمام
مواث
قلل
##قالي
تدعي
##ستم
##امبا
مدرك
تخطى
ساهر
ينتخب
عشير
تعاقب
مواثيق
تصالح
دهم
ينقذ
عاصي
أذهب
بلان
بطريركي
طالع
يندرج
خمسيني
عنكب
حبك
بريئ
يوني
##سترول
روبير
هاري
استئجار
##نز
عوائل
فيكت
متزامن
متاعب
ترتكز
يتعرف
أنى
أقبل
سريان
استفز
أتحدث
اعاق
نصير
مسمي
إضرار
يصاحب
إغراء
تفاعلي
طاغي
ميلانو
خالف
تقرب
مأخوذ
يخلو
##زيق
##غور
عريف
محاكا
يصار
يوحي
سفلي
مهمل
سحق
يوحنا
خضم
سوائل
امريكي
ابناء
أقصد
##شتاين
منفى
هضب
1431
استحال
مغاربي
مدفع
##جاد
إتف
اولي
مراتب
متشابه
تراك
تصويب
اقر
شيباني
بياض
صير
يبث
مشيئ
يتزعم
تلم
حاصر
متكافئ
##فران
غيابي
ركيز
تخبط
أرييل
مفتى
يلد
جبلاي
شوقى
فخذ
قالب
فخم
هارون
حضرموت
ضامن
استخلاص
يوغوسل
فنلندي
ملعق
ازرق
طوابق
تلفاز
ميدي
تصفيق
أقد
يوزع
ماسبيرو
حجازي
##وثي
مشكور
سعداء
امار
1965
زيمباب
St
مواشي
باهر
عايز
بديهي
متعارف
عمه
موظفو
هض
مته
سيرجي
فضائح
ثار
صدقي
إنبى
راوي
سالف
ويكي
نحر
##يتي
وام
هامبورغ
رأف
قبرصي
##غولي
مدحت
مقتني
عهود
ناي
شيد
##باص
هشاش
بيضون
كلثوم
##الوني
يلغي
كوين
تقويض
1701
فئوي
##سترا
إليز
كوبرى
أرفع
يؤسس
غون
إسكندر
##شيك
##نك
تحكيمي
ميون
افي
104
تفقدي
كازاخستان
إسمنت
خمر
مستقيم
##وفان
عينى
تضيع
موتى
مرتزق
##اكين
دينا
##ck
غيث
مناعي
##كرز
تعريفي
تخط
فنزويلي
باقر
وصي
تتصدر
يشن
قابلي
Sp
يشكو
جنزورى
أساطير
إضفاء
يحاسب
101
تشنج
##بض
بدلاء
شواهد
لبنانى
##دور
تال
تلوي
متردد
##يعابي
مساج
تباحث
موناكو
تنوير
سدود
إشعار
##ow
يتوج
تزور
اشار
غدر
خضرو
تماس
مايك
غفير
عطوي
أموم
سريري
أنزل
زغر
أني
فاح
يستوعب
أباظة
أرثوذكس
ميخائيل
مثلى
جمهورى
تعسفي
لؤل
مرتكز
يحرز
يرحل
##لاءم
زلفي
صناعى
استكمل
##شري
فئران
روبوت
ثنائى
##34
##ئام
تستثمر
مخترع
مصادف
أوتو
اندي
يؤخذ
انكماش
طرب
تعارف
مأمول
ليونيل
تفجر
يمكنني
تسهل
تلحق
استعر
تضطر
أعجب
ديزل
انشط
فخور
شيشان
منفع
تثقيفي
أليم
طماطم
بنادق
رشاد
ثقب
##31
مدا
118
لؤلؤ
كومبيوتر
102
ساقي
بصل
بيرو
استيعابي
صيت
أعيش
إكو
رؤوف
بليغ
مكب
مادام
قاء
فلل
مجسم
غنام
##تور
كلوي
أنطوني
توجي
قطان
جراد
اغتر
تحدى
سهلي
خدع
صخري
نيم
نعيري
سدير
مخارج
ندخل
برنت
إشبيلي
فرقاء
فيزيائي
زبد
خيط
يغني
اغل
ثامر
أطن
حالتين
تربص
ردي
غوغل
##وفون
يتجزأ
نعاني
أفكر
يثق
بسي
صرب
##ستن
##فين
عكا
##خرط
متلاحق
جنادري
ناف
تتعاون
يحاكم
نطر
##كيا
مغل
نديم
فزع
##ik
عبدرب
تخفي
كدم
تذمر
قمم
يستوجب
تحرم
اسكن
إين
اغني
انقطع
1961
فورمولا
يحارب
زمر
يستجيب
تهاون
كبح
شفت
نجع
##72
آباد
تخسر
صفاقسي
أكاذيب
ماتي
استشعار
CNN
أودى
##ers
أنبياء
##71
مدع
أرمني
يوازي
أرمينيا
تنضم
1950
##دية
1966
##اجا
مجيء
كوست
تقاعس
سبوت
##وزن
ينتهى
سليماني
تفتتح
استص
استأنف
##كسون
أطلب
ثوان
تعريض
جبا
أرصد
انب
ميانمار
تعيق
تتحكم
مخفر
اسن
إلخ
مرق
نتن
مجلد
جرف
رشد
مجني
ملقب
استحسان
قضبان
عدي
تحليلي
أثرياء
كهن
##32
ترم
موري
ميري
ازدواجي
سيلفا
فسح
128
##ائدي
دومينيك
فرش
جيرمان
هامشي
خروق
محاط
احساس
هلي
دبل
أنبار
سخي
ترع
يكرر
ألتراس
دواسر
##باس
مشفى
موارن
حارب
شالك
##ادمي
تصدق
نينوى
126
خلفان
ماني
مشروعي
مسكين
##ابيث
##مام
##فئ
غزا
فقري
أحاول
تران
رمزى
واضع
أيادي
أحس
با
اعتيادي
إخماد
صفيح
تفضيل
ينسحب
عصي
شاع
مضيق
##سسوار
##ستين
تردي
رطب
ذوى
جدو
بورتو
حرير
كلود
هرمون
أثمر
نبل
##خيل
نتر
1954
سرك
مداخ
ماع
موم
رعى
جوى
معزز
بطيئ
تلام
غنوشي
تبي
بج
تكتشف
129
خارجى
##وياء
يشترك
يكتمل
يحوي
بوص
تجريد
فاضح
ميونخ
متأهل
أنسب
الغ
وزارتي
اصطف
شوهد
موسيقا
رديف
شطي
حمار
مرتاح
موازا
##اديش
معاد
أواصر
جائر
أسمى
عازل
##and
عناد
جراف
مارون
مهدى
تنسى
هرمل
صاغ
إغراق
مختطف
استولى
خانق
اغلبي
رغيف
نشكر
احصائي
تخليص
اختفى
حاخ
اكتف
ضيع
تحسم
##زار
مدمج
تأهب
جزار
لذ
##زاف
أضاع
خلدون
##اوئ
اوراق
##ورن
غردقة
لويز
إنشاؤ
مشتر
عجلان
ينعم
توت
##دوز
يعوض
عطري
مرص
يأمر
نرجو
خطابي
مودع
زخ
برادعي
عوال
الف
نؤمن
افتقد
فيش
##ريا
إخلال
ادراك
أودع
انقلابي
يفرق
التفات
اعلم
شله
استصلاح
رشق
##نن
درزي
عريضي
تفوز
بلوم
يهرب
كواكب
سانا
##ويز
احتاج
جرائد
##حدى
تنبه
##حص
نيوك
أتذكر
##تاري
مسئولو
استشف
يتطور
فوت
فنلندا
مسارح
اقدام
##خصائي
##ثيل
ربيعي
يحكي
##كتاتور
شقراء
تشاهد
كوز
اصطي
ايس
يناهز
ضمني
تقشف
سريلان
مهجور
جاهلي
كرو
رايتس
روتين
تنطوي
لعن
حلبي
تفاجأ
عصيب
مسال
حجازى
مسجون
شعائر
رواج
اطر
تموت
لامع
##ية
منجم
قسائم
مقاس
مبانى
قلص
نقر
موبايل
شلهوب
شامسي
شياطين
توجيهي
إطلال
حطم
##اوات
زوارق
ترتدي
كربلاء
اهل
أثقال
##ميني
اوز
إمر
خفجي
تنال
زجاجي
إرهاق
أبى
##خاء
كرملين
قوق
إسكتلندي
نكس
سلاسل
##42
##ئى
تكميلي
فيد
زائف
نتعامل
##ونو
نحترم
سعيدي
ملكى
أعمق
كنز
##جدي
دود
أعيان
قني
طوابير
واين
ارجاء
تستأنف
معتوق
أجوب
اهت
سفلت
##ادع
##احى
أبيات
مظالم
أشرط
##ولو
تركمان
دمنهور
دراسى
##ئب
##صادي
##باي
أقدر
تطابق
ليفي
تبسيط
1959
خطباء
##امني
أمازي
116
طري
يرضى
مصباح
مقلق
عكاش
ينشط
يشاء
##ينال
جبري
أوجد
رويس
آذان
##ورت
إضافة
##IN
يحث
أنيق
إليزابيث
أشعار
أطنان
شاغل
يتحكم
فيست
جدال
جودو
قطبي
119
أنان
سيس
محاذي
يطمئن
كشم
صامد
معاقل
أنوار
استعجال
مشارف
سنغالي
بدع
مخيل
قنفذ
يشك
حبال
يبقي
##اقا
تحاور
قصار
شتوت
جواهر
يخفي
قاذ
طغيان
هلع
##ربص
أوروغ
مكيف
يكتسب
تكسب
متجاوز
تنور
متقارب
##ess
تشا
متسلل
يمت
##قلب
تتردد
تنهي
تتشكل
تكرمي
صرام
استنزاف
##ليه
ينطوي
فداء
أثيوبي
معزل
نمل
دالي
قاموس
##هوف
يبني
صون
##زوج
بارود
مطالع
##ذاء
##كتروني
تليق
مصحف
تكثر
سيناتور
كونج
ادو
عبيدي
إعت
بريمن
النمر
بائس
نتذكر
تتنافس
أبقى
هيد
##IS
لوري
دح
تلامذ
ستيفان
خناق
احتمالي
نقدر
إرباك
##فيز
صعاب
بلبل
قبع
توال
منيف
##وهان
أروع
شفر
بدار
نعيد
سلفى
مبيت
برتقالي
شتائم
اداري
مثابر
##ومان
##اقى
##اغط
سوليدير
يتحدد
##ندور
يباع
موتورز
جماعى
ندب
650
145
تشهير
أردف
1432
أساء
جبير
حصين
##ايف
##77
##فيديف
كرز
مأمون
شيرين
##سبير
آت
##رية
مخيب
مخطئ
ضباب
آد
أدق
سلوم
انقراض
استعراضي
مزار
أسمر
بنيان
فراق
مسدود
أساقف
ماراثون
كارول
ابداع
مبتد
مزروعي
متمركز
##ديلا
شرير
يجلب
غوانتانامو
تبرئ
يعامل
يختص
نلعب
شالكه
غب
حاخام
أرج
غلط
مدبر
صلو
مكتبي
بصير
صميم
ابنائ
دوب
يونغ
يؤهل
تكسير
##درو
غرين
آند
ذياب
غربى
مترشح
تخاطب
##ay
يساوي
ناديا
جيري
##33
سنح
ووتش
إمباب
##عون
مخبر
راين
فقى
يوص
فرناندو
شعلان
تشاؤ
يكبر
تضامني
مأوى
1949
قشر
تتعارض
مقصد
أيرلندا
حسون
سبوتنيك
زملائي
شفق
نشوء
يسرا
تجلي
ريمون
##وهات
يضحك
يكتف
لبيب
##كيب
1400
مافيا
112
مهنئ
##فون
متضامن
مدان
وثق
اوس
ادخار
موظفى
قران
هات
شتات
قانا
155
نادية
يستأنف
زغ
أوقي
تنفسي
امكان
بدون
تجريب
خمسمائ
2030
طواف
دكتاتوري
##نتش
##جيم
يتعاون
مناجم
شيب
##وكا
يتماشى
تكفيري
تكري
ضاري
اثنتين
عمول
##اشى
أشقائ
انحسار
أتي
متدين
منذر
##ويع
مداخيل
محيي
##اعيل
##ماك
شوال
##جول
دفاتر
بوليس
ترف
وصيف
خذ
ملاقا
خلقي
أبان
##عدم
رابين
يغلب
يتفوق
مسالك
تستن
كوبر
##كاز
##كلل
##ترن
يلتحق
جزيل
##ونيس
عثيم
سداسي
دهني
حوي
رضى
تفتقد
179
تسخير
سيب
بقى
أحو
راشيا
لحي
بركان
زغرتا
رث
دوادمي
230
سأ
يتمسك
أغانى
دوني
كميل
يلم
يمسك
يشكر
##كشف
تجوال
بيلار
ملائك
باسيل
قصارى
ضاغط
##نيت
جيان
عتاد
ميامي
تلزم
يكره
ممانع
كمان
##اغر
بليون
مولا
توريث
عريقات
إجهاد
هونج
موالا
قند
تصنف
تختص
صفدي
ويندوز
خرس
##تبئ
أسطوري
بدوى
مثول
سفيان
مزدحم
أحرى
كاهن
1424
عبدالج
يصرخ
كاميروني
مليشي
##زير
تاف
تتزايد
مراكب
أترك
اخترق
مضحك
غدير
##وفوني
##طيني
نيوكاسل
مالح
مخول
يعشق
خفر
اكر
انتقاء
ثرا
لندني
##تلافي
أناق
فتو
صفار
يرشح
استيائ
شعاع
لت
##تريا
##صفح
يعقب
قبور
نقولا
##تفى
ستاد
بها
مكتشف
أوغندا
تنكر
تعدين
يواكب
عشب
##امير
أهلاوي
غراف
##مئ
##86
تسون
سميح
منحدر
##ايم
##حلو
وخ
أتيح
راجح
نفاق
نفر
يتفقد
راع
تمد
تجبر
متقطع
تبليغ
طمع
لع
##بلي
كريستوفر
واقي
حمادى
360
أحيا
هولي
ثواب
تهويد
مشمول
مسيحى
##شعر
يستر
مآسي
تنفق
بسطاء
غفل
##لبى
استوائي
نتابع
جزين
ديالى
مسند
احتشد
محق
يتخلل
كابوس
##وفسكي
بحرى
جزيرة
اسطوان
أماني
فراس
فاتن
ينفق
ملتقي
بلح
إتقان
إجرام
بيتي
##وسط
محدودي
محك
رجا
احتج
225
##نيع
إفراط
زند
أسلم
محظوظ
يتفر
جروب
جبان
عنمن
شخصى
##ساو
رسل
يسرق
رانيا
غيري
اني
##اقية
صافر
بروتستان
يتزوج
آبل
يرحب
حسك
تنتهج
عمداء
سوني
غوت
انهار
يعي
كريه
يشرب
متقن
يحتضن
إحكام
كاسترو
ذيل
##ورتي
موقر
سيدى
أطالب
كعبي
قصيبي
##ديولا
رامى
مقدي
##يدى
عازم
إسحق
دويل
مبي
يابس
##توني
اراضي
اكتمل
تضمين
##بورن
فاشي
زملاؤ
شربل
وافي
انسداد
تملأ
فرنسوا
بوذي
نحصل
أرباب
أمريكان
اله
نوبي
أزال
إزاح
فيحاء
رجعي
مطرد
جبريل
تقترح
غص
##تصب
يعمد
##جراف
سيجار
تؤسس
فس
مقاضا
عبدالر
ساك
له
استصدار
متري
يكثر
نيود
أسى
##خان
مشاغل
تتوزع
يقم
ملخص
رميثي
ميمون
فدي
##كينا
الحلو
عواض
شويخ
إجرائي
1947
##ستردام
شكوا
##طة
يستكمل
يخش
قوبل
يكتفي
##نتينا
يتجاهل
منابر
تكبر
تخدير
مثار
حطين
بلق
موقت
حسر
أبقار
165
سمراء
مهيأ
مفلح
مانديلا
استثمر
حياء
ضفاف
رمان
تشتري
يفتقر
صينى
مقتضي
270
1957
إفشال
جزيئ
قعد
فوكس
تأجل
أحضان
##ائه
نذهب
صبحى
تعنت
اقتل
كاريكاتير
##ضلل
كسل
مجابه
وت
حسينى
ترضي
مشيط
فرانكوفوني
تمشيط
يطال
بم
نخرج
يترجم
اشراك
يخفى
إقليمى
سات
لوني
أحاسيس
باخر
ترهيب
محسوبي
افتقار
غيبوب
صا
أقران
سامبا
ساف
ائتلافي
صاوى
مكفوف
سخط
حوط
زى
أشرفي
حاصبيا
يوصف
مجاع
ظريف
يقضى
دمائ
بيزنطي
مشرد
##مات
تبدي
بروفسور
شيفر
هيوست
بوصل
قدساوي
بويز
يتأكد
أعلاف
شاليط
فذ
مأهول
همس
أعمى
ميتس
##وبر
يتركز
سوفييتي
تلاحق
عضلي
مسما
بلاز
صول
دعائم
إقتصادي
تأت
مباراتي
تتغ
اختلاس
##66
تحث
شفا
موف
جهز
حارق
بوروسيا
##th
حيفا
عيال
مفسد
حوري
##بيس
##ادش
تتوجه
##ينكو
تدار
جونيور
تشويش
يمتاز
حفاو
##ذاب
##دش
##بند
طاش
اهد
وافر
كاردينال
##وجى
عنبر
ساير
تعظيم
روجيه
أضخم
نتأ
انفراج
نشو
##ab
حيط
تآكل
دروب
سنوى
1600
تأكل
##جيلا
دعيج
ذل
زاهي
##رينو
عسى
سلي
##مري
مندد
تسلق
أمستردام
انزعاج
تأقلم
##نتج
رمس
سيلي
تماثل
##يقظ
جرار
انتكاس
تخفف
320
متفرغ
ازل
وهبي
##ist
اقتتال
مضيئ
زورق
بنات
مليء
تبقي
تكثف
كنف
ادوار
حازمي
مارينا
كرا
يجهل
قيوين
##ركوزن
تمشي
تتلخص
اوك
بام
دفء
كسار
##ap
افل
معا
استبدل
##يريك
عوالم
مجدل
مزج
وجع
##تيت
بوليسي
يعتذر
واهم
أمعاء
سيتى
زيمبابوي
معادى
مارتين
##بريالي
ينصب
##يسن
يصير
شلال
احتوائ
##ريخ
صاخب
خوار
أبيه
عنب
to
زغل
برى
بيانو
يتزامن
نحمل
روضة
تمتاز
##اشم
اجل
تجذب
هناء
يحصد
يبادر
يحتم
ندا
مردد
##كسار
نعطي
افتراء
إند
إفتاء
عجم
تعزي
يراد
إشهار
تجريم
كولن
آيل
##نست
لاذع
فايد
عزا
نرح
صافى
غدد
امتثال
سردي
منقطع
يسفر
تليفون
ترحب
##دمج
يمام
نهى
عقارى
مقاليد
##اشيد
استنس
تعلو
انقض
يصنف
##درد
عليم
مرحلي
ضاق
استيفاء
لحاق
تماثيل
براق
مناش
تفضي
صيح
تمزيق
انصر
قانونى
مراهن
حسابي
صهر
تخفض
فحي
صفع
إيمانويل
فلف
##غيز
ويس
بيشي
تدفئ
دعار
رينو
أفقد
توسط
ماكي
كعك
أملك
جلاد
صلات
أثن
ضحى
ديانا
##يزي
أحبط
يضعف
إكسب
تشافي
ديتر
نانسي
مشوه
##88
كمب
طبطب
زيات
بنزرتي
127
##الق
ترويع
##اويل
منوي
اره
تستعيد
كلوب
##واحد
درء
ماض
بادئ
محبب
بلوز
ندعم
منحت
كراس
تنته
عندئذ
مهمش
تصفح
تشتهر
خلافي
##ركزي
مشق
برلس
تستقر
سموح
صابون
فيض
تشتت
أوفي
كهربائى
نسف
عشان
ملاحي
ميدل
فضلي
##احف
نعت
يطول
آلان
##ov
التباس
نماء
قولون
تخويف
عكر
##حدار
114
##ينة
أفرز
ماركسي
تزلج
يرتكز
مشين
نيكولاس
##وبان
هابط
ينخفض
مخطوف
##الدين
تشاؤم
استرالي
هجن
بيكهام
يوصل
##بالا
إفساد
تقطيع
عوا
رضاع
منظار
محبط
إسكتلندا
##نال
تنصت
##نم
هرع
يخطئ
##سفيلد
تقاتل
ابتل
لوران
مادى
أزهار
ألغى
مديح
مرابط
تناغم
عويض
مستمد
مبشر
تشريد
فضول
أناني
ترويجي
إيحاء
ينجز
تأديبي
دهر
##اسف
##ستراد
ليفركوزن
سانتوس
أفقي
كنتم
أحزان
يتخلى
صك
غمار
شهو
تحتمل
رئوي
##قيع
##ذم
حنك
أديس
يستحقون
غرور
اجتاز
لوت
يحتذى
يراهن
نتو
وعاء
فرانسيسكو
ارز
مثمن
شقير
معدوم
##ظافر
لامركزي
رودري
##اهام
وسيم
قبيسي
مصدق
فيرج
تنقسم
مضخ
حطام
##اسط
بدري
يستثمر
تماشي
رنا
اقفال
تفتيت
اختب
يتدرب
سيسى
##ub
باء
يقض
نقش
عددي
تتلق
غندور
مدخر
تواريخ
يكفى
كشمير
بدران
شحي
يتبادل
أرفض
تبعث
تحريم
أطيب
فيكتوريا
تفسر
تطول
ساوث
لاتسيو
امور
بدن
دروز
##يسون
تزعم
ينشأ
فتيل
حضن
يشكك
أورك
ينعقد
جبين
مهيمن
بطاطا
عبدالواحد
يستمتع
مقديشو
عقائدي
كمالي
1953
##خرف
شقي
فناء
محجوب
ملجأ
يساند
ساره
113
فلفل
عمى
مقفل
مخي
عويد
رويد
صفاقس
استفزازي
اقبال
##اريز
##وة
معتمدي
تسابق
مشتعل
فارط
مهين
مقصر
فسر
##واد
حوت
Re
زحم
اون
مستعجل
انقضاء
رآ
مكتتب
ميليس
مئتي
تخريبي
اشتعل
محرج
##جالي
أشير
يملأ
مفاضل
محبوس
منسي
انان
تهوي
عبدربه
1433
شنغ
حجيج
مواتي
##الين
##اضد
##شيت
أريح
عاتي
فج
مزدهر
مرا
تصلب
تمول
كاترين
يتظاهر
كرتون
يدر
مواط
قاذف
لشبون
ذوو
إزعاج
210
باف
ينج
اسهام
كالسيوم
تنزيل
بؤس
وار
تتمنى
سنتيمتر
بنفس
تروج
نجوى
مبايع
إيديولوجي
فوارق
مراكش
فوك
تؤخذ
خميني
تكويني
مخب
ألغي
يطرأ
رازق
ارتداد
رفاه
تمن
إنجيل
تقسيط
أتلانتا
شتم
نعلن
هيأ
قيصر
كوشن
ناضج
1955
تناوب
شافيز
تنادي
تساند
متروك
تكتسب
مفترق
تايلاندي
ينادي
حجوز
موني
روبرتو
أبابا
نتساءل
عادى
ملفت
عقر
اصطحاب
يودع
117
فيدر
توس
خلد
جيت
##اصي
رفحاء
نيودلهي
سنغافوري
124
احترازي
اسطبل
اخراج
خمسي
استغاث
معادا
ناجى
انحدار
##ؤول
احتسب
اشراف
قرق
##ard
هوم
مونت
مقدسي
عطائ
ابعاد
إثيوبي
إسحاق
استهتار
أوزان
محصن
استدراج
انجلترا
يقنع
ادبي
عنيد
لاقى
تطويق
260
وبائي
تعصف
تاون
همجي
كروى
منحوت
قطاعي
أطل
ترديد
سركيس
##هاج
بانكوك
صلت
##67
تجنيب
استمتع
##ورة
تعمق
مستبد
##ie
نشير
كينغ
بلتاج
ايج
بعلبكي
نضالي
##توس
ذاهب
هوب
##يلان
عقائد
زنج
##ستيان
يلاقي
شيكاب
جرجس
احال
أقوياء
يخف
تحلق
معصوم
بقيق
غراء
##صاق
تسحب
نسيب
##64
##امش
لحام
##وجيت
de
يزرع
شيكابالا
مرش
أعطال
آدمي
صاعق
يخفض
اهتزاز
يته
محروس
إطال
دشت
متحضر
##ايدر
قمعي
متراجع
تلح
تستجيب
مغطا
إحراج
إبطال
ينذر
##91
هضمي
مساجين
صحن
ديوك
##يح
عالج
##رسون
تراعي
مناصف
##وتين
ملاءم
كتات
بانجو
أبوي
يدمر
##LE
استبيان
سناتور
استرخاء
انكسار
احتباس
يوس
##تياد
أسند
توعد
يعطل
خازن
طبطبائي
يعيق
وهل
لوكسم
فريس
سوسي
##جانس
إيذاء
##خض
تشاوري
هزيل
##جيان
متناهي
يتوصل
حارث
يتأخر
مارين
لطف
يسيء
ساو
لفظي
ابتكر
##اؤول
إجراؤ
بوينغ
##قاظ
إجرائ
أحاط
كنوز
##ine
##جوز
راسينغ
لث
طفيلي
##ساوى
توصف
##اسيب
شكك
تتوج
يصادف
##كيت
اعتل
شبكي
اباد
كبريت
راديكالي
تتوالى
تنحى
##اكرتا
إجباري
صياح
مستور
إيجابى
مقروء
رفسن
##ويرس
مفرق
انتقائي
يسلط
نصري
يعلو
كاتي
استعار
يغر
##ديا
قطط
مصيل
فاو
##ذيل
اولمبي
أكت
مقتضى
زف
تويني
ضمائر
سارق
ذوات
ضالع
يستلزم
فيدي
امتلك
ماركو
تبديد
يتبنى
قمصان
أندونيسي
##ملاء
نوار
متاه
##اغن
##زني
أنغام
عديم
مشاعل
مصب
نادال
يقسم
خمور
##62
تربح
جشع
ركض
كنسي
تتماشى
مؤسساتي
عقلاء
تنويه
ليفني
بكري
##اصير
##ائبي
منقسم
##طرى
درعي
قويعي
أثيوبيا
Ch
تجيب
فرغ
فحيحيل
ويم
مرب
أرباع
إخوانى
إكوادور
##55
أمازيغي
تتاح
قبطى
كوبنه
أبيد
شافعي
##يلي
يجدر
حلاو
إلياس
خليوي
مستوح
أقطاب
مجتهد
تبرر
اتسع
قدماء
صخب
يوان
أحلى
غاشم
ترعا
اشتبك
كنى
تهاجم
متسول
فيفري
واك
عقم
شموع
جاكرتا
حذو
اضعاف
مازلت
تستقطب
سطام
منبه
فيور
##زك
فولف
موسيقار
سكاي
وليم
نجعل
أتف
يما
شىء
مبسط
##اكف
1946
##ازيا
##برايت
تمييزي
بهجت
باست
طهي
متحالف
تنتقد
اوت
تحايل
أوسطي
بوسني
امتلأ
ألبس
نراها
تحارب
##ريش
مكى
##ؤس
وزرائ
دهن
محلا
ضني
تعبيري
##اجو
أبين
مدوي
إخواني
يخاطب
وعر
تستوجب
برنار
ابها
وزارى
عنتر
تختفي
أتصور
فردوس
بلعيد
280
معترض
منسجم
متجول
##تمن
شتاين
كفل
طبر
شيماء
##83
##اخم
##خات
تقاضي
بيضاوي
##ونيل
نرحب
لطفى
أغنى
تغييب
يرام
اداء
##63
انتفاع
##غواي
##ترس
حجاز
يفشل
تنحصر
فصلي
جرس
اضر
لورد
يتلقون
مارد
ميتشل
اشكال
لدن
خافيير
##ويا
##يدو
موجع
دعام
##برس
إيب
يبشر
يقلق
مزين
أقسم
مبتدئ
##ثوي
كيلي
عبثي
يال
عويس
##انت
أنظر
إيرلندي
نسير
##اته
معيض
حوس
خيرى
نقوش
شرور
بوريس
##غارت
##ةال
ينشد
استقطب
أشقر
شاك
مستطيل
انصراف
عداو
إباحي
تترجم
##ماض
كانتا
##61
##نتو
إبن
تفاني
تعسف
أتح
اعتب
يحتوى
شفهي
##تيز
فلاسف
عطش
ساذ
اشتكى
وشيك
##غراف
يراجع
يمهد
تغليب
صادف
تصدع
أدرج
##oc
أموي
مطري
تتنوع
رفسنجاني
##est
اشتد
##سمان
أزمن
ارتكاز
طراد
ناظم
ستاندرد
جاهل
مستحدث
##ليح
حائر
انقسم
متطابق
##ونهم
##ميا
يحظ
تيب
إندي
##وديا
ميدو
سقا
##اتك
1800
مخبأ
أونيسكو
نسج
مكتظ
أمتع
فلا
##زاوى
شبين
تحييد
السكن
إخاء
نقت
رضع
##يفو
ايرلندا
عراب
جارالله
جيبوتي
أوروغواي
متوف
قسطن
ريع
بيلاروسي
ويكيليكس
ينفى
##فول
1920
غيوم
دييغو
اغتراب
نستمر
علشان
ضخام
تافه
ديترويت
غت
ابو
اسلامي
حنجر
يتزايد
أدراج
صرع
تريكة
يفوت
انص
أفريل
ثاقب
مصلى
مسع
اشكالي
بولتون
قرشي
مفعم
دوى
مسرع
##حن
فيراري
دوق
تثمين
معطاء
يوت
حسنين
برتقال
جوهان
صويلح
السكندرى
عظمي
##ينس
يوري
##رج
عبدالغني
رؤيا
هيوستن
أحرف
رامسفيلد
أكر
شجب
براعم
يشعل
هيومن
لزم
1423
انه
هاآرتس
تحلل
مغلوط
كساد
##وانى
صحراوى
خضراوات
طمس
خنق
مازلنا
ضبابي
تتمحور
أرسلان
توسعي
يكف
ميراث
خمسين
تخالف
ميكروباص
أناشيد
شراري
يتوافر
اقل
اغتال
تقصد
##ايمر
غلام
تكرس
غث
سكون
أرجأ
##اوضي
قناطر
لقو
تشجير
يائس
قابس
سانح
فوزان
بروس
ملياردير
أسبانى
##بورج
ايراني
مغلوب
تأديب
دحر
إرجاء
زامبيا
صالحي
تضخيم
شاط
##ليت
بلقان
تجي
متداخل
##لسون
سنان
##ايدن
عدول
جلعاد
تسونامي
##فيلد
تقلد
##تمس
عاود
أنغ
رويال
##ابطين
بائد
هايتي
##هاري
تفاوضي
جارديان
تسييس
##زاد
فايس
مضلل
ترويكا
اقتناص
أوركسترا
يجذب
احتياطى
كوه
نوكيا
جوبا
##وأ
شريد
عتيد
دانم
يلتفت
مولر
معجل
##ريرى
ليو
عائش
منج
عشيق
إتصال
أوزبكي
ويست
مراعي
##شاك
##شغل
مقداد
نزيل
إلغائ
##بندنت
متجانس
سمار
وئام
إغفال
كاكا
قسيم
ينسب
مقترض
يتط
##زالي
##وتن
عشري
تجلس
##84
ريكاردو
تشابك
أعدم
##ودى
يري
يتغمد
منبع
##احر
##انق
مسالم
إلت
ارد
براهيم
تحاصر
تنقص
استعلام
أوليمبى
مصافي
حوامل
تغليف
ننشر
تبادر
مطير
عاني
فيفي
عبدلي
##وجرام
تباشر
لاهاي
شنق
محايل
ناجع
شخ
يدري
حوش
تتكلم
لاه
##87
زغلول
تلغي
منابع
زنزان
باج
معاوي
تزيين
##نتال
يهزم
فأر
غزالي
##82
مغرض
##طش
تستبعد
##اغت
نعوم
##تشه
أبدع
##ثور
بيكر
مبارز
أسكن
فلسطينى
الحريرى
##av
ميرزا
إسمي
قيصري
إرجاع
##طحب
ألوف
خيطان
شابه
محيى
##ودو
ايفر
ذئب
لارس
أوصاف
مفتعل
تعرقل
1434
امتع
380
تلميح
إجمال
واكب
##لهم
شتوتغارت
زهران
عاجي
أندرو
اخلاق
حسد
تفتيشي
149
1939
سباعي
دبلوماسى
خواج
##بحار
خطيئ
##تنى
شنغهاي
##فيكا
دنان
شظ
تناسلي
تتحسن
بدان
أسماؤ
عكاظ
بتروجيت
ساويرس
بولاق
غيتس
نلتقي
مذاق
ماركوس
منقذ
وبي
شرائع
عازمى
نون
محرز
مصف
وجداني
حالم
تلقيح
إحت
مراوغ
عدوي
سويداء
جمادى
بوردو
اطمأن
رواندا
شقر
وجودي
خلاب
معلا
##غالى
محجب
يدشن
##شوش
علوش
خصوب
يهنئ
جورنال
ديفوار
تطمح
فيلادل
أعز
شركتي
##وتوف
زياني
نرفع
كلباء
حايك
غوي
ليتو
ورط
يعثر
##اصق
أمجاد
عبدو
بريء
ساذج
أحواض
تأصيل
غاري
##فوني
رشا
ذهول
حكر
وطيد
منتمي
بالون
تى
دهان
##ولف
عرفي
ثلاثمائ
آثر
راو
يتنازل
موفاز
قطعي
حكماء
مسلك
عبدالملك
حاقد
بطش
##ction
دالاس
شمول
تنام
##ليان
1300
أمض
نعترف
كارني
##ومو
كورونا
استخفاف
كافر
أفواه
جمجم
تتصرف
ريحان
تأميني
تاريخى
تذوق
ترقى
أرغب
لوبيز
يهتف
يحتج
يعجز
متردي
أكسج
زعبي
أبجدي
السي
ابلاغ
##أثر
شوائب
##ارت
شحاد
أردنى
تستحوذ
سيرجيو
##الونيا
آلى
##ختر
تساهل
تأهيلي
فيورنتينا
850
##كوبتر
ميج
##ناوى
حنون
اسمي
رفات
تشيني
درام
##ايدي
بورز
فتفت
مكرمه
أيقون
أعني
أولبرايت
باتي
لايف
أوري
قدمو
لايع
ادي
##81
غنم
##ربع
انتهاج
إبت
رستم
اشع
رنين
أبرشي
اجن
محاص
يحيل
##وزى
بابطين
اضطرار
براه
هارف
##يض
كاسح
وإ
##فيش
يلبس
خزن
صوفيا
كبس
إيست
ترو
ينقسم
فرعوني
##ابيح
آم
توخي
أخشى
أحمل
123
بلم
اسير
علل
باهت
تزين
أيدز
انتهائ
ماطر
استنساخ
دوت
مستنكر
##رجح
شهرى
قه
يسحب
##غوط
سامسونج
وايت
يستحيل
تتخلى
برتغالى
طبقي
خدام
تنعم
قبلة
تنزل
تتبنا
مشبع
مسبح
مذابح
إتفاق
ملغ
نيكي
تصادف
سكرتاري
نسل
أباد
تشترك
بيه
##اتيجى
تحويلي
تزخر
محرض
مغب
اشتغل
يخلص
دلم
ندفع
يضغط
##هامي
بارع
بهل
قذر
مجبر
مأرب
سلوفاكيا
نقب
سخن
خشون
##كوس
يوغوسلافيا
ينتمى
أزهري
انفصل
تتسلم
رمسيس
أواسط
##اشق
يتفاعل
هايد
مميت
مستضيف
ماستر
إلحاقية
شمالى
قلاف
##اميك
##حو
يستعين
خواص
عقي
ثرى
##nik
قنطار
مافي
هود
مخفض
توظف
بحى
هوامش
بهيج
يقاوم
مطرود
ختان
1936
متسوق
ألواح
122
إشعاعي
اسري
##غنى
1944
نتفق
##طنع
دسوق
سماسر
ذئاب
معجم
استيقظ
أحبب
##وتريكة
غامر
غوار
مشحون
مشرح
كرزاي
متهالك
دنانير
ينسجم
جعب
مولودية
عتيب
معيد
مطبع
##طو
##تحم
معابد
##اثيم
##pt
معمق
##آل
يكرس
##ity
إهداء
ديموغرافي
إكساب
زيف
##درز
1951
##ec
خيرت
نتكلم
##ندق
عاقب
اعتنق
صباغ
بارح
مائتي
أبحث
مغزى
متوالي
تبنا
حضرى
##سول
ترؤس
كفى
##واى
تبلور
##اوس
صليبخات
كتاتنى
##زهايمر
330
كسروان
وقتي
تحيل
مطاطي
ديربي
عائض
اسبانيا
##شيا
يباشر
مصعب
##bc
جراثيم
أنجولا
##ac
1943
كيت
تنظير
مهيري
بوار
بستان
ملوح
##ريز
نيمار
دج
سيست
مكارم
خفف
يهودى
مله
مصائب
مبهر
ماثل
##اريال
يبنى
##هين
##99
يكسر
لزوم
تنفع
تفرز
تعجيل
يعتد
سولانا
1930
الني
ساطع
##وننا
حطب
##وشيما
خرسان
نوح
حوسني
يتخطى
برهن
منحاز
محا
سلبى
سفك
##شهد
نمن
##غاء
رداء
محزن
##فيه
شلاش
مترابط
سماك
اقط
احتكام
##اعدي
جلود
يحفز
مندوبي
غرباء
موشي
هليكوبتر
وراث
انبار
إعلاء
قوقاز
يزعج
فاب
سمان
يدلي
بايدن
يتنقل
إفساح
قرطب
##تلاند
نتعلم
ديرون
فريح
ياقوت
يخطر
شجار
أترب
لغم
نسور
جزم
تبريك
قنيطر
اسكت
يديم
مغتصب
050
اصلاح
بوتو
مكاني
تنعقد
احضار
بستاني
الك
زبير
تنبع
##وبيل
هذان
سيرالي
فيلادلفيا
يحاضر
أقمش
##انيك
يمشي
جيهان
ابراهيم
##ss
ينفرد
فوضوي
مبيض
تنجز
محاصص
قز
مقب
أبوع
زويل
عتم
سائ
فرنسيس
برغوثي
توابع
لاريجاني
خجول
تجميلي
كارلو
نزف
th
اصطياد
ماير
هوندا
ولف
##هوفن
##غري
فاسي
سيك
##تيا
##غاس
اعي
مفدى
مطيرى
ملهم
##سامح
يجرؤ
اقتصار
كولونيل
مبرد
أصب
اسهم
##ue
طالبي
افتقاد
أكرر
اجور
مبح
سيء
جاسوس
تتذكر
ديبورتي
استديو
تكسر
##جرز
دكر
مطاحن
تدر
تفشل
إنفاذ
بدور
شط
ايصال
ندرس
##خد
رحباني
فهر
##تاجون
ادلب
مدلل
كفار
3500
أفسد
متعصب
اهداف
##if
رباح
شبي
نحافظ
لؤ
مخاتير
اقتدار
بلوت
ثلاثى
بقال
ينتصر
132
نوت
##utnik
رجول
اعدادي
Sputnik
تغرق
FI
سابا
فز
باطني
أنجلس
تحريري
اجاب
ملاكى
يمض
ثوم
مستعار
روافد
مخرب
بانور
انواع
##يدا
تأجيج
ملثم
سراب
1940
أرخص
##عية
سانتي
دمش
تيمور
غشاء
مرمي
فوه
يي
##قة
سيوف
بلتاجى
منأى
##ماير
أذان
درو
تعوي
مرتادي
بوغ
معيب
استقام
نبني
بنجل
يتسن
اصطحب
مرجعيون
مقتضب
يجي
فيلك
تعوض
أجدر
سخيف
سوابق
##طرس
اغلب
كوشنير
عوده
سدر
مقتدى
ديبورتيفو
اطار
محتوا
طارد
##ate
##راب
ستم
ابتسم
تايم
آمر
##زاب
ثنيان
أستون
يسلك
تحظر
##زيت
تقسم
فصحى
فييرا
صلال
وجهاء
داكن
وابل
نول
حبيبي
##المبور
كاثرين
بهن
سيري
##عمائ
كوستاري
##خت
ليكرز
يقبع
سكاف
ترسخ
##اوج
##ارح
بنو
بنس
جمرك
يعرب
1941
1938
يحرق
مقتول
بلاش
##هاني
##باو
تمحور
ابتهاج
يعرقل
جونغ
فيتنامي
مصرح
مجموعتين
شراس
اكاديمي
هداي
ذرائع
تزييف
يلوح
متنفس
مجلسى
مستشهد
يترقب
ازدر
حنفي
##يك
بوزيد
يفي
جريء
تنسحب
Ne
##ob
ذيب
يقفز
غزار
##امبو
تجلب
مقتصر
يتقاضى
يونيسيف
إنجليز
بأ
شيشاني
رن
عوف
تزد
فيرو
أرجل
متحول
بيروتي
انخرط
Sy
متصفح
قنطر
تجتاح
انتهج
مهزل
تبييض
159
قاتم
أنجح
اقتنع
محافظتي
مغالط
عنكبوتي
إبحار
اربع
ترمب
آنا
فلاش
أشلاء
##ونية
فتيان
جامد
##لبث
زرقاوي
يام
##اشيونال
عيتاني
عور
أرت
مستعصي
انشغل
##اية
توكل
مليح
نقاء
##زعج
يضاعف
يلحظ
يتقاض
فياريال
سفاح
إدماج
##art
يصرح
عمالق
تتصاعد
آبائ
روائى
رهبان
سريلانكا
اتل
تضطلع
غيم
قريش
##ابوليس
2022
سينا
دمشقي
يسب
نسو
##ملاك
شرقى
يحالف
صبرا
دريم
##اليس
ألوم
مالطا
قاطر
##قتان
ارجع
يلاحق
بوركينا
إلم
1919
مدلول
ذكرا
غبط
منغ
مطهر
يوهان
##احك
كوالالمبور
##ذرع
يسخر
##غيب
مكسر
تلويح
رجالي
كورب
نكتشف
مصافح
منهاج
مغفر
##ذف
كويتى
تجلى
يسوع
كويكب
لينا
إيرلندا
أوهاي
كرنف
##ضاؤ
إسعاد
ممتلئ
كيلوجرام
##ثان
##فيس
ماعز
يفرح
روبل
ديمتري
جائل
##شون
طلاء
سيلفي
وأد
غين
ادان
هلم
تهجم
زعابي
نحرص
أوهايو
شيل
يلتسين
أسطح
تكبير
مادتين
مرهق
علوان
تشيكيا
غجر
تورا
##آب
تشادي
##باز
ينابيع
ملاريا
##بية
إريتريا
ارك
أرق
سيرك
##حاني
تشكو
اسعار
ممثلي
انهال
##ويحي
ثلاثيني
جليدي
مجيب
استسلم
برلمانى
لامس
##يرمو
##بتون
يلمس
تحفز
عجمى
غفران
فيزا
##وراس
ابنى
تسويف
121
مولوتوف
خرم
ايب
تكلل
شوش
ارشاد
##وارى
جيمي
تخليد
هومن
كريستال
دقى
يشد
فابيو
عنقودي
تستهلك
افتعال
رخام
تلوح
حينئذ
أخطائ
أحمال
لهيب
سالب
##ورية
أهدى
شاذلى
جوب
غيل
##ويك
اختزال
عوار
تحيز
يعدل
##سكا
##اندا
يخطف
آسف
تخاف
انترنت
تلبس
ألزم
حلفاؤ
##our
تنزانيا
##وطي
باتري
دوف
ليتر
تجفيف
إعمال
كحولي
##pp
ميست
تفي
تزرع
آنف
بخار
##صع
##انية
##ورج
جنوني
رشاوى
محيسن
اللتان
قريطم
مصابيح
##غون
منضم
جدلي
تستورد
يطور
##52
طاف
أوم
تحلم
أشارك
مدقق
لامبالا
وهابي
##شب
انار
نصفي
سلطاني
4401
اقتطاع
فولكس
سيبا
فاسو
##اتة
أعدائ
مرجان
يماني
بنفيكا
كارت
##ثني
أقسى
أظافر
كغ
مناشط
معايد
##افاري
كاراتي
تهز
طليق
بدين
اراد
اغلاق
##عرع
اغلق
مستطاع
تأزم
مسعف
أنغولا
كاك
كاريبي
سيت
##اثان
ريث
فترتين
تستمع
تتجلى
ينطق
تشويق
اخترع
بزي
شهوان
بروج
طوعي
تضغط
يبكي
جانيرو
عنابي
يتاح
##طيق
##شيز
احب
جولف
وراق
يحلو
خول
غبي
عطيف
تشترط
بنيوي
استملاك
سوسن
يغرق
نطمح
ممنهج
نجلاء
نرغب
طوفان
مهنى
اجتذاب
ركام
إجتماع
قندهار
##لاوى
متاخم
مزاجي
طاح
Al
تجل
يتناقض
أجاز
نهاد
##ak
مثقل
عبي
ضعفاء
جباي
تتط
أطماع
احترم
صروح
##ING
تتفاعل
مصطنع
##ونت
معطى
##لاندو
خائن
حسيب
اموال
يترشح
هندى
مقاتلو
##قاق
هانوفر
رامز
فيلق
مشكوك
صادم
##وليت
ديكتاتور
##igh
أبيدجان
قيروان
هيدروجين
فكم
أحماض
متوج
نستع
مخبري
أخشاب
تعاضد
هارفارد
سخون
مغمور
إننى
مغلف
فنجان
اكتظ
تعابير
يهدي
##افن
كلور
زئ
هبوب
رفاع
أوتار
قبيح
فريدي
هيت
عقاد
رودي
متآ
تجنيس
معلوف
بعثي
إدعاء
مغيب
معى
يؤجل
##اجن
يستقيل
شدي
مريب
قطرى
فريج
يؤدون
قارن
مجزي
##كوا
ضاعف
سحي
##ونيوم
تشبث
تهدم
يتلاءم
أبوتريكة
بوج
فوائض
نفت
##ماوى
راجي
تراكمي
ماكد
غرم
افكار
الإسب
لذي
شيح
##ort
st
شهيب
عقيم
كيك
شوكول
فلور
كشك
انتف
جيتس
شراعي
غريغ
دمى
عنود
مجازف
نركز
مناوئ
##ملي
كيفن
##يلاند
شرخ
أهمل
مغذي
انسيابي
نطلق
برأ
جوليان
نطرح
##طيح
##اليك
يقلص
مربح
إنترناشيونال
حماسي
ساقط
##بيتي
أوفياء
مديرو
محسوم
يرمز
أعان
أوجاع
##واس
يمول
فدائي
كاش
بب
متعاطف
حراج
مغشوش
تضيق
تشرح
اعاد
البافاري
غولف
رصف
سلاس
يستهلك
فضائل
نقم
مصبح
استشهادي
شوبير
##فيك
مقتطف
توريس
فوسفات
ألمنيوم
دربي
نمور
متنبي
مقايض
قانص
بيير
كاحل
شاتي
ساركوزى
##وية
تصاعدي
يتعهد
شاذلي
وو
كلارك
تلاحظ
عجائب
تيلي
كوكايين
شعاب
مشيخ
نشيط
يتبق
##تيد
تخبر
يصطدم
ثعل
رائ
شا
الإسبانى
هاوس
استباقي
عفيفى
##ok
إشراق
متناس
##افون
محموم
سومري
خلا
##هايم
مكرو
مهيب
##بوس
سناء
بطيء
قسر
سباب
افاد
نظل
تزن
ذن
##وشا
مجارا
بقمي
سحور
بطاطس
جاؤ
بيبي
شظايا
رحي
تتفاقم
قاصد
لهب
لحج
فاخ
كسو
كلتا
##يرية
جهوزي
نشء
##54
دكتورا
مزق
مزاح
زهيد
دعيع
خروب
يتجنب
##وزا
متتاليتين
فرو
أرخ
##ant
تكتفي
زد
عنزى
شكرى
زيج
فيع
تهويل
تنتهك
اغتيل
انتقامي
دويتشه
دحل
نشارك
سكول
ازدراء
##فائ
إنجيلي
ملتهب
##شيء
##قض
يركب
أويل
غرناط
مام
مقل
أورلاندو
##اعور
يفسد
يانج
تأني
يعقوبي
يدرب
##اذل
تباعد
يرجى
ديدي
اعتزام
نورا
ألبانيا
حراش
##ودور
مقطم
جسمي
لزام
اجبر
##وبيا
يتقن
اختلط
عياش
ندري
تتجاهل
معاود
##بيرغ
بلاي
شارف
##عافي
ذوبان
أندرسون
خزائن
ليد
أزق
فورى
بربري
انتهازي
##all
فتت
تناقص
دواعي
عجين
باسي
دراويش
أوبئ
استحدث
خرساني
أهاب
عنقري
تقاعدي
تدريسي
تهدأ
مايا
أنجليس
سفلى
##وبكر
يكذب
##حال
شول
ثنايا
إفلات
تجرد
قريع
بريم
طواقم
بنفسجي
يهز
ايمان
بيطار
أدونيس
أنسى
##طعام
1918
عبدالحليم
تعتقل
تعقيم
##ماي
نتوقف
بالم
ارس
##مير
أقت
تحتم
قاوم
هندو
اضطلاع
فيرغ
##فيت
سبر
مستشر
تبتعد
ضوض
شاليه
جذر
نبذل
##ill
عزمى
##درك
بلو
مسته
اصطفاف
الش
بارما
أبشع
ناصيف
فاحش
نابض
يتصدى
وبيان
امامي
##ازيلى
منسوج
تسيء
راق
يعم
ينهض
متقلب
بلاء
يلتقط
يهبط
هوساوي
ايجابي
اسأل
فيم
زيتي
صهيونى
ربك
اطفال
طبار
سرا
معمور
ليز
مسلط
يقلب
كهف
إعتداء
البرازيلى
جنان
##تيان
سكاكا
ارسنال
جوامع
تسخين
اجاز
طحين
غلا
ليغ
تمايز
أهواء
تريث
شيق
##ركون
اشعار
غوري
##53
زهري
موائد
بورما
يقتنع
إضاع
136
غوغ
حفز
##خا
بولونيا
تلازم
ضعاف
##فلاند
بلغراد
قلاع
نوفل
انحصر
يعاود
نحتفل
يشتغل
ومد
مهزوم
أورو
أوبر
خندق
1100
إيفاد
سمية
إنتربول
##وزو
متناثر
أنثوي
إسكاني
فرانكو
افعال
شفاه
أيرلندي
##وجا
مسحوق
انتهك
فلكل
##اميع
##ابان
سكرى
اعتصم
ليطاني
استبدادي
رديئ
يحكى
حرض
منضبط
خواطر
##حدود
عائم
أوتوستراد
تسجيلي
عضوم
##قتا
عسر
##ذاج
صدع
ساين
لإ
أسعى
زعي
كاراتيه
كونف
راجل
مضني
واهي
متحفظ
براين
الزهايمر
بلوك
بارا
يفضي
درقي
مجاميع
بدير
انغ
ذباب
ضائق
يخوت
مكفول
تأزيم
نانو
تشتيت
تتخطى
المن
340
ريما
ميعاد
غابري
هطل
##املي
غلوم
تخوين
مونتاج
سانشيز
##باخ
فاجع
بوند
قدور
سامراء
##وبول
إغاثي
حفن
سامسونغ
لايت
##تنق
غلوبل
يغرم
كليفلاند
رولان
يؤد
تأميم
مكتفي
تشافيز
هيروين
صبا
1942
يزيل
تضاريس
تهذيب
هيلتون
دساتير
اخصائي
كانو
سلالم
صوري
ألبرت
ضرورى
حواسيب
يحيا
أقضي
إراق
إذلال
آجال
همم
شافعى
نوير
سنترال
##ne
كادي
مؤذن
عصافير
سذاج
سيزار
ياف
1929
شلبى
أوسم
تليكوم
معلب
##صياع
محاذا
لود
قائمقام
##لينغ
يتول
133
يزل
يشرع
##اله
يستقطب
أشبال
حساوي
قواسم
##ترو
كوليسترول
ولو
تائه
##ud
أمية
ثبيتي
تهدي
وريث
انتظم
##هومن
##روم
بيبل
استخباري
كوندولي
متسع
تنفجر
فهيم
مذل
يستح
موعود
عجر
نابليون
يطار
حشو
مخبز
تشيد
##كيف
طبول
نتقدم
اشتراكى
تته
اخبر
##وانا
يتقاسم
لاصق
شاتيلا
انصرف
ينحصر
ينتبه
##اشا
عوز
De
يتجلى
غريز
##ثاث
محيا
شاكل
اقترف
مصفح
تجويد
##وستس
بركاني
إملاء
##ريدج
تصطدم
يرق
نفوق
اعمال
##صيح
معقود
مطوي
نيلسون
بدرشين
ارف
ناصرى
بيطرى
دباغ
ملامس
جيرارد
مرصاد
##ئة
بابوي
##ونتو
تقضى
ينحدر
مكامن
عبدالص
ترحي
انغلاق
##كرم
إنفلونزا
##اييف
اسناد
نزح
مظفر
غازى
خولي
مطارن
1934
##ونني
كوهين
تؤجل
انصياع
يار
اخلاقي
##ies
##ينيه
جذعي
##ip
أصداء
##51
جوبي
سيباستيان
بارس
شرائط
بأن
مستديم
مؤجر
تجريح
##اريت
تأريخ
علاني
لامحدود
جبلى
تنهض
يتبقى
جنسى
اتهامي
محتش
بنغالي
فظيع
اقتلاع
أنتظر
عاصر
بيج
ميكا
تكتم
##دج
خذل
وارن
نستخدم
يغضب
##ذوب
نوق
فخار
إكثار
##ترث
نخاع
تايلور
أنجيلا
##سرع
كآب
اعتدى
290
##صلح
وريد
لارسن
##ارسو
عفاف
منتفع
تستعرض
ريادة
تزاحم
يله
1917
رباب
ترحيبي
##ترول
أنطون
غارديان
داك
بروتستانتي
نوى
##منتي
أخاف
رمى
تسكين
إخبار
حماق
إلمام
زويد
مقبوض
فيردر
هست
تعكف
إدم
يشتر
عزمي
تقطن
ثورى
اجتهد
صدي
وظف
يتجمع
تفويت
تتزامن
بلع
أصلح
راضى
تصاب
بدئ
راند
مستر
درن
1923
يقبض
مناطقي
محدق
أشاهد
تبكي
يوظف
##ISS
متمكن
مفاعيل
تلع
مستفيض
أتساءل
الهومن
نث
بوليفيا
تتدفق
جداري
تحوط
حمضي
إستوديو
عاكف
باكور
طفح
##ويس
##تيهما
ترجى
تضعف
Le
عروق
ضوضاء
يحاصر
تراوي
أبوز
السيستاني
جمباز
تعج
إنق
##ادوري
نورث
فريدريك
يضفي
فاني
تمليك
حلل
نجي
نيق
134
انساني
لوازم
عيدي
دانييل
إسكو
تتطرق
طولي
سفاجا
سقي
رغد
كوستاريكا
نختار
سابقتين
تلامس
إيساف
منشي
يرتب
تنكيل
##جاوات
##تينغ
مفرغ
تشاء
بنغلادش
سبيرز
##اقيع
ابا
##لسى
147
مونتي
احتوى
##ثا
انز
فيح
شفوي
عوفي
خراط
148
تصحر
ملحقي
##لاشى
نوفو
مسوغ
جارف
عناق
مسلخ
فيروسي
##بوك
موضي
ورك
منافق
##دة
ضاحك
##طقم
زمنى
تاكسى
محير
أطرش
يمرر
أندلسي
سيراليون
توضي
تصويري
ترعرع
##عام
عدلى
زبيدي
قنص
تتخلل
رويشد
قفل
تدارس
ماق
مالكى
مفصلي
عبدالجليل
نعتمد
1933
بيبلوس
ماكل
تفلح
يتحسن
آري
تدريج
آيف
##دال
اسبوعي
عاون
متشائم
مدب
##لينى
يراعي
##نسي
فرحا
أستطع
مرأى
معتدي
ماكياج
##قية
حمير
معتق
##وارت
تكاملي
كوستا
شالوم
يطير
##56
اعان
وحدوي
سميع
##واب
تنصح
غذائى
##تشو
متفرد
هاف
أدن
سخاء
ينته
##ran
شذ
ملتبس
قابع
زهاء
امتدح
يحرر
##خالق
يفجر
عملى
يحس
144
فسف
مقطور
بوكو
##بحر
##جيرى
جوزي
تجوب
##وتس
نيبال
بارزاني
كوندوليزا
تشبيه
رني
##ونسو
تعوق
استس
تضبط
شفائ
غاصب
##96
تشيع
##انيس
تحجيم
يعكف
هيم
##ell
جماهيرى
عبدالخالق
راقب
شبو
كاسياس
نتخذ
نسر
اقارب
طنج
##ضعف
خوي
فيشر
أنتر
بناؤ
##وود
تايلند
هجين
فيدرر
اكتر
استشراف
منوال
موصول
هليل
أكسد
تحذيري
لوكسمبورغ
جعلني
نستفيد
حداثي
طوير
فرانش
كوثر
براميل
سنن
##مالك
##ER
##لاين
غطاس
##سلي
بهار
استأجر
دردش
علياء
MISS
##يسوتا
رفد
أبوم
عقارب
ساكس
انكشاف
تهام
سواعد
مشاغب
تنتهى
يونيه
إنديانا
##ولوجى
يستغرب
مايور
غباء
يذاع
إيرباص
##وماتيكي
فاينن
يعزى
تصعيدي
##يشي
نذر
وارسو
##غز
كتير
أحرص
يجيز
##نجر
FILE
مخاض
مؤسسى
إليزيه
حبش
تولوز
تطمين
استئنافي
استدلال
##دين
370
صقلي
صفوى
##ذوق
إشرافي
هزازي
بياني
مارينز
##57
اشاع
ردى
اقتباس
تايواني
بوندس
MISSING
تلفي
محاسن
أجناس
لايم
تحرق
يقفل
برع
استحضار
نرد
أتابع
1937
كوبون
مستشرق
منشآ
لفيف
اعد
##اصور
تندد
زهار
##rt
اندر
غيور
##ge
##ةالي
عميري
فولاذ
مواطني
تمهد
دنا
لاسال
##نيد
تنقذ
اشتري
مطابع
خشن
يسوق
أربعيني
كبو
##اطأ
هلل
روف
خطايا
معلل
##كاثر
##اتكم
زاخر
أشباح
طبوبي
منتقل
بيرن
##وسون
##500
تطارد
##وديوم
##ورف
أغرب
تجانس
يول
بطولي
فصيح
##ونيك
##97
يهمني
رونالدينيو
##اجل
أونص
أذي
يتجول
حزبى
مناول
137
تند
##كوفيتش
اكل
أزيد
اندفع
سمعان
بطيخ
أتن
1900
تشرد
##ينيزي
راسم
طامح
##بيرن
قلبى
أرامل
جوق
وولف
##92
##اسكا
شاطئي
##ضاءل
تبيان
أيوبي
ضع
عقابي
ضلال
مدينتى
يند
أجب
أسلاف
أولا
اهتز
جمد
دحلان
al
غلاب
فخرانى
يجن
حامض
سلطوي
اعط
غوارديولا
يناشد
جدوا
تغل
هامد
##هوي
يوصي
وعل
قوالب
نخشى
كوبنهاغن
##ونس
منقوص
روزنام
دلالي
ساحتين
نروجي
ذنوب
##قتنا
يتخيل
شابي
أعنف
ليمان
سعدان
مطرق
آغا
فردى
يتشكل
اترك
mbc
##اديل
##وميز
فيديوه
##غهام
خرد
ديموم
شتي
مملوء
لمع
عابث
مروي
مارغ
اسكاني
زخرف
مانيلا
كتبي
تشبع
##تيار
محفل
##موذج
##ونالد
راموس
مناوش
مقدونيا
غران
بكيري
منشغل
طبل
##جة
انفع
قرضاوي
رشوان
##انيت
مينيسوتا
دينامو
استقصاء
##شافي
هاين
أبق
جماح
طرة
سلوفينيا
أخا
يخترق
يرتاد
مرايا
أزر
جوناثان
تبشر
إسكواش
جران
مكث
حضارى
##NA
##ستشار
معافى
كنت
ألماس
##ستانى
ارسال
خلفاء
ضلع
غان
##فأ
##بيط
##الية
شفط
##ib
مرافئ
يختفي
زعل
أريحا
أنوث
اعتناق
نفاد
نحي
نكتب
تدوم
##زمي
يتخلص
يفاجأ
يونيسكو
عصمت
فصح
اجتثاث
لوكاس
مريد
إندبندنت
لاج
حمزاوى
رشدي
ناصع
ينتهج
أيقونة
طاحن
يرقى
ليبير
غولدن
وهج
مجرا
حاق
عشريني
مفصول
ترجح
تتفوق
##مض
رشاق
نجر
إيجى
مطاب
يلتق
هدأ
اضطراري
##جرار
آيفون
##تابع
##ian
تورونتو
محمدي
ميدفيديف
##اسكو
أثمان
ميلو
هدا
مخفي
بعوض
طابا
##58
##بره
تفادى
لخص
مسؤولى
نثق
أوسي
شكسبير
أعت
انوار
مطراني
أعضاؤ
يزود
تطرأ
شخوص
نقيم
أرحب
درا
ملط
صنوبر
ريثما
##اكسي
اهلاوي
##ورين
أندرويد
كرنفال
سعال
موديز
متربص
سعف
برنس
7700
يمتنع
ملاصق
مونتري
##ادوني
بريك
تعريب
كراتشي
##حيص
نتعرف
ينقطع
تشكك
مباغت
تأبين
عازار
مليم
طوي
صهاري
انتاج
إسبانيول
يفاجئ
بزري
##وياني
شوه
تدع
اتزان
##افو
##ونك
ماتش
تحصد
لذيذ
تاجي
ثواني
ويلسون
مواضع
ميجاوات
##up
مزهر
تعجز
##نسانى
جنوبى
أوروج
ألبرتو
مونس
أراه
أنصاف
لؤي
إبط
إحجام
انصاف
منافي
تلحين
موص
استباح
يتبنا
تصليح
إسهال
##انتي
كولونيا
صعق
تزول
شلبي
مأم
نختلف
مصراتة
تحيي
تحصى
##وحش
يفصح
تحريف
إطعام
طوع
لئ
عرائس
باريسي
لاشيء
مطابخ
صهاريج
بريست
يافع
داغ
رضوخ
##لاؤ
شاهق
منهار
ورى
تتزوج
وبر
##se
صيدلاني
ومن
##تكم
مناف
##ونز
اشتبه
توما
تقاس
مغرد
احتو
ريختر
يرقد
بنتاجون
سائب
مربوط
جسار
ترفيع
أياكس
سانتا
آثم
نناقش
خدماتي
طلبي
محامو
هاريس
مارسيل
قلائل
ثبوتي
مصارح
وفير
صوديوم
ملغوم
1932
متتبع
##جيد
منظمو
كهوف
فولهام
##94
كيفما
أعناق
جيفري
إمرأ
متدرج
استدرك
##93
صلوخ
مباح
اوغ
طرائق
##ازون
افترض
وور
صامويل
ازعاج
زان
##شاق
يتعد
أغان
صاف
وشم
توش
ممزوج
قهوجي
دراماتيكي
أكسب
شوكي
ولايتي
ملبورن
غائم
تقصى
عقال
اده
غولن
تينة
بره
خرف
رابي
إسبان
##باد
##وجت
تهب
##ph
متضارب
تقاوم
##لفانيا
يهيمن
انفس
يتداول
محجوز
##كنز
مكسور
تنفى
تصحيحي
تلوين
##MS
##ry
نيوزيلندي
##ونة
كارثية
حصب
دورتين
غات
##اوند
اصول
شارب
لاتفي
##جاوي
ديزني
هندوراس
ديجي
مصيلحى
مونتريال
ماجي
##كية
أذاع
مصعد
صوف
محترق
بلات
اوج
##درلاند
جوانتانامو
مستوحا
يجهز
إرغام
قربي
إيفر
نلمس
تطويع
ادم
أوربا
اضطرر
أداؤ
عيدان
تالف
نفخ
أذواق
اشتغال
والتر
البوم
إنه
##زية
ترتقي
بوق
متوجب
اود
أعرق
طاير
توائم
##هدي
تعدل
إكسسوار
##داك
re
ملاء
تورينو
يستمد
##باك
مفرقع
لبنى
يتفهم
جلف
يتعذر
تنذر
إصبع
تواقيع
لائم
##يرس
##ive
شوماخر
ناقور
يختم
متوازي
1935
##خدام
رحمان
خيبر
تشطيب
يستهان
نقع
بواخر
سياتل
##nt
تتأكد
##فيديو
نعش
شرقاوي
تلقين
أبدأ
كوميدى
فيلي
محفوف
متباعد
ميستورا
وكر
هلاك
ياك
146
##ast
صقيع
تدويل
متدفق
ذمار
حبيس
كفيف
##قراطي
اعتباري
جوارح
##نث
تنقطع
1925
##لت
تنفرد
اخي
ينم
عيسوى
هرسك
مائل
برونو
جبور
شماع
ترضى
فيول
يحتجز
حوال
زرد
##صيب
مصابى
مرجاني
دكان
تشتعل
طغا
هوفن
تخي
##طفئ
تؤول
أوبريت
متهور
تغاضي
جودي
يزن
رائج
استراتيجى
هومنتمان
تخترق
فيلتمان
آلن
كلاش
الإنسانى
الكتروني
##عور
أعترف
انتاجي
انتاب
##98
تمادي
يرتقي
تتعلم
قطاف
تستمد
جرافي
محاسبي
يعزف
##فتوح
سهير
بيليه
سواريز
بتات
لياقي
دراهم
اغتن
باتر
ألعب
متدهور
اوق
إغماء
غلوب
أدهم
تتمسك
معتزل
جوس
مخد
جيوسي
أغضب
متفرع
يستنكر
أجدى
فردان
##ذون
تعاطى
##على
رباني
سلوفيني
##تاو
تنويم
##ينين
مكوك
زير
غوث
كفت
##الو
سليل
##لوس
هيام
ثروت
جى
جفن
آى
طوابع
فط
يرع
تترتب
متخيل
##هارد
وعظ
بلاكبيرن
##ight
أواني
أمجد
مضار
Pro
مثان
بيتش
تتوصل
نمار
يوسع
بأنفلونزا
راسي
يغفل
أصف
اثنتان
##سرى
تشد
فطور
أشمل
غطرس
منزوع
1914
أدعي
نيروبي
أوشك
أدوات
بنسلفانيا
فولكل
مبرح
أعذار
فئات
نضيف
باكيت
يحال
إقط
بوخ
خاف
طفلي
شعيبي
تهبط
مستأنف
اتقان
أليف
مصرفى
ترانزيت
مبهم
يفسح
عصائر
بويض
الكات
مؤيدى
ماركس
خمير
اختبر
استحمام
مشكك
131
رايت
يقارن
برويز
باليرمو
##بارد
مصادم
انتهي
الإمار
غافل
أفرع
أكفاء
##جمالى
رومني
برشلونة
مرضا
داس
يؤخر
يتنافى
مريع
التصاق
اسس
ايك
##بوح
ينتهك
حوم
تسد
حفتر
وفيق
طباخ
إلكترون
بنغلاديش
أرحل
منوم
مأجور
معبأ
زيني
فاخوري
كولين
تتساءل
أفواج
هيغ
جائع
استودي
تصاحب
تتضاعف
تشفير
عوام
مديرى
ولائ
156
جواسيس
##وندي
سكاكين
حياتى
ايرباص
1700
يوليه
يريح
برنارد
بدائع
سرياني
ماريوت
نبلاء
مروح
مجحف
استهان
مساك
أميال
شارد
أحق
تهور
420
##اواط
مناص
ريا
تسدد
نابي
##عبان
ميلر
ميكانيكا
رينجرز
ربا
ديناصور
تعاظم
تتأخر
تلزيم
لمي
ينهى
تنصل
ديلى
صفائح
طاجي
مقادير
تصعد
ارهاق
نسرين
242
تظن
معالى
اعتلال
منخرط
فتاك
جندل
يونيسف
نفتح
روائع
زخارف
جعي
1928
تضفي
شنط
يتوزع
محتسب
اكبر
غليان
أبنائي
غورد
ظواهري
عمرى
اسباب
راكد
ماما
فتك
تعول
تبان
1922
تطير
تزويج
تورم
إمبريالي
بطان
زيل
أغطي
ناهز
نورمان
تقنع
منبعث
بلباو
مثنى
كولا
مآل
ألهم
تلفيق
انتقاص
يضيق
خليفي
منحني
##عاوي
كلاس
##ستو
قطامي
محمودي
سيراميك
ازم
تربى
152
إرنست
كاديما
غفور
إرهابى
##ومة
كاريكاتوري
سمسر
تخاذل
مذاكر
شورب
لاغ
أكشاك
شانفيل
بوخار
محلول
##لواء
يتوسط
يشوب
إيلاء
رواسب
أتعاب
لايك
يستسلم
بانوراما
الكاتالوني
مشوق
نهل
أطقم
دنفر
زاهد
جزاف
يجتاز
نروج
مايوركا
شاس
##وجان
154
##ثنى
حركتي
يطرد
تراشق
عقرب
بغيض
انجلوس
##تهما
كراك
ترام
دنيوي
أطلس
كبسول
##ستطيع
مباركي
تغلغل
##ونيوز
مارشال
تراويح
يسعي
حاشي
##بيق
##فاوي
نذير
لاع
خروف
تهيمن
تهديف
استشفاء
تظ
نخوض
تحصن
شناوى
أوليفر
نفخر
جوليا
هنغ
فزاع
موفور
لاللواء
التماس
متولى
أودينيزي
وسم
طائش
وزني
بوخارست
ثلجي
##خلى
تخابر
كامي
ترقيم
مكلا
يغذي
فيغو
كسوف
النيجيرى
ماثي
أوك
محمدى
تيلرسون
أكتاف
حاسوبي
تنقيح
عشائري
خنزير
ستيوارت
واكيم
رسخ
عقبا
خاب
أحزم
##وجير
مستنير
بازار
مقتبس
يضبط
وهي
يقي
يابانى
راؤول
حاجب
كازينو
منعزل
احاط
نقصان
أبوالفتوح
متلف
Be
إيفا
كلاسيكو
يتحلى
امتعاض
قبطان
يطعن
دوك
تحجب
تمار
برمن
أشرك
تخمين
احراج
تتفر
فرجينيا
رماح
##ينيل
لايوجد
خصي
تستعين
لامي
مخوا
بورمي
اسلوب
يسد
وقاد
نوجه
شرد
إشباع
مكتوف
هاتفى
هرمز
##طاط
##قرض
زعيتر
تتوسع
أعراق
انفرادي
جياد
1921
أحمدى
هندوسي
تراجي
رينيه
مبطن
يجول
تبخر
استنشاق
##ite
##RT
تتفاوت
تنسجم
تنصب
##ment
انتحر
##كسر
تدبر
تعط
هاميل
غضر
مادلين
أرينا
مرطب
قويم
موانع
وحداوي
يلهم
أكمن
##ذاذ
تليجراف
تربع
تعتيم
##يللو
مداري
دريد
شادى
يتوافد
زنك
يشيع
شيراتون
رذيل
لغط
بهو
خضري
غرينتش
اخلال
استفد
سوتشي
ماف
نتد
تكف
يطارد
هتك
تتصدى
توف
الصر
تتعدد
افضل
##أسف
قلد
تلس
مؤيدو
كوماند
غفار
سندرلاند
جسام
تتلاءم
ويح
حمية
إكسبو
مصلي
شويف
الصرعاوي
احدث
اعجاب
براهين
Con
يورد
ليوناردو
##طاد
براج
دافوس
ماكدونالد
هامل
تلغراف
حصى
##قلص
يقيس
أصلى
عادا
جوهرى
##اشف
مجفف
أرضى
كوش
أعراس
أثرى
وسد
تحتجز
يبتسم
ليتوانيا
تطبع
كيدي
إستق
تنزه
تبدد
مديد
مناوب
عنكبوت
اصرار
أندونيسيا
لوسي
غزلان
أرا
أخف
يضطلع
##وريخ
مرصود
موصوف
شرودر
مستشاري
متوحش
ملمح
قضائ
##وستاتا
ستراسب
موراي
##ةاليابان
زاحف
روبر
دفت
انفعالي
أطوار
جامعيةاليابان
شذوذ
##ثمار
برزاني
شيكل
مقتضا
أشك
رساميل
مدفون
يتصف
1924
مستعرض
كمبوديا
ترحل
أرن
دند
سوك
ظر
مسيس
مالم
عظماء
كلل
إلقائ
##ain
أنجل
يهدر
ملتحق
ضهر
يجنب
معترك
عبدالعظيم
أسيوي
تعافى
الإماراتى
داح
بكالوريا
##ver
##تران
خطوب
انشأ
كينيدي
تلخيص
ثعبان
سديد
أغرق
لوموند
نصبح
استباق
متي
##ديكت
ثعلب
باسط
اغر
تلفظ
عتاب
تنهار
##الدو
متفاقم
تحوير
قرف
نحدد
معمار
زوب
أنشيل
##ينغا
كبرياء
حشري
ستالين
عبدالصمد
يستلم
جارح
بريستول
سيدتي
##غراد
ايفرتون
MBC
ماساتش
بإجمالى
دوخي
باعث
##ريان
ناسداك
اصوات
اليس
متتابع
دائرى
480
ثانوى
جذع
يحتسب
تشرب
بوني
امبراط
تفترض
غنا
يوحد
كتائبي
أذون
أياد
بريت
مراوح
ديجيتال
ترحم
تيف
أحباء
موضعي
إنزيم
فلن
##اكش
أملاح
310
ميريل
مآثر
مورغان
فتش
نهاري
مكرس
1931
تهافت
شهيل
تأطير
استطلع
أوحد
مطعون
طيني
إتباع
يقصر
ميسور
##وسى
ارتطم
153
##اعش
265
كاظ
يهي
مبتسم
##قير
أبرار
##زور
نبوى
جبوري
فإ
عرفج
ماروك
تشعل
نعتز
نضمن
مزري
ستانلي
عشرى
عاشوراء
أبوزيد
توهج
زوم
جزا
شلي
غبن
نازك
جعيد
تمري
##ice
اكتراث
سلكي
##كاء
تصير
مشن
تثمر
هيج
أرغم
رسولي
182
شتاينماير
مخر
سطيف
آنس
انقضاض
اقتصادى
اجعل
دلو
حشم
ناشي
تمعن
بشاير
##ابيس
زيباري
مخلوف
يحزن
يدخن
##one
آلم
تقلق
##600
ذاتى
رؤا
يقوي
صبور
القر
استيقاظ
خافت
وصفو
عزاب
استشفائي
كلين
وهيب
إلك
بيتيس
قسطر
امني
ثديي
بنكيران
انتفاخ
تشقق
فتجد
انصهار
رصين
##وليه
شركتين
كرتوني
أنش
بثينة
نبيذ
يسوعي
غلال
نوفر
مواءم
أدين
ارتأ
اشترا
كبت
مرادف
##تاس
إثم
زبن
ساء
ناهض
كاو
راسل
آشوري
Com
وهران
نعرض
غرامي
أقدار
غاندي
ارتقى
اعوان
متشابك
شبل
أمضي
واتس
حانون
يتبرع
أراك
حبيشي
##غش
يراع
دوما
جليب
رالف
يونج
أسياد
زح
ياهو
تمخض
خفاء
تحوم
داد
توتال
يفخر
عميم
كوليرا
خاوي
انتفض
شاى
##عاني
منغولي
اعتناء
##موند
##دهوفن
أطلال
جفر
احباط
ألاف
زايدي
صماء
ناؤ
خراج
أندريا
##جرأ
تومي
بوكر
سوب
ابتدأ
بورتلاند
أوال
يسارع
##اسا
##اشونال
بيب
ملاجئ
ضحا
يهدأ
قمار
وحوش
تغطى
تزيل
اجهز
جاكوب
فطن
يبن
حينذاك
166
متحرر
هزلي
خزف
القاب
دارج
Sh
تشرذم
##تذب
بف
##اليز
375
خزام
##تردام
التفت
راخ
تمويه
ماين
كفا
متساو
سبات
قمري
غثيان
عقير
مسرور
نات
أنسولين
يوك
وصال
إنطلاق
يوسفي
اخذ
غرائز
معايش
رياحي
طائرتين
اكسسوار
أفرقاء
تنتصر
نازل
##نانديز
سانتياغو
مدعا
أعاصير
141
##زيدي
##ضاوى
بيرسي
بهب
##اوع
فورت
تانى
##اسة
تمياط
روث
منقضي
مجهر
4400
فينيقي
حصون
نوقش
يشق
اهلي
بتروجت
157
سرقسط
ديمي
##ائلي
ذائق
السن
عياط
شرقاوى
دييجو
مغن
صوامع
صفية
حلح
متزن
##همر
تليفوني
هانز
تشيلسى
طرفي
هاميلتون
تنازع
لعين
واط
حربش
استهجان
تودع
استتب
حسناء
يتعمد
شنيع
ينجم
مستهق
طلح
اعتزل
اكتس
تراخي
ارتدى
امال
شاخ
تخف
باكي
جمعاء
##غلاس
سوار
هيلارى
مفرز
##برك
تجاعيد
نؤيد
داب
سكي
مماليك
دليمي
راعى
سحوب
ازدهر
إه
شمرى
عرين
نخسر
أقلع
مباع
أتقدم
يراعى
استئثار
كاظمي
رونق
Th
معلول
رفاعى
سماد
فوربس
بلازا
فرزلي
##ff
فاطمي
1926
يتساوى
ديد
يثار
شعوذ
شهدائ
آيس
نكراء
شهام
##ولينا
يتما
##رياس
بيرس
نعر
براند
تستلزم
شجون
عوامي
##تمى
حدس
غراس
يتعاطى
شوكولات
محاذ
قرح
يملي
1915
تركمانستان
##هاش
بيرنز
يفلح
فتور
أنصح
لدود
تساوى
باليه
مسكون
مهذب
أصح
كاست
حوسب
##وسين
##رضا
خليجى
أضي
##بلدون
##سبان
##ure
##ستار
ولع
إفراغ
ماكن
بشائر
ولوج
يروى
خلجاوي
##نيس
##اسيونال
قطف
ندين
قابوس
رابغ
مزلق
تفرج
سيهات
مباراتان
اعتلاء
##AN
شيطاني
162
استوعب
مرتع
ذهبى
بطون
تصرخ
بسيونى
يشوه
158
حميضي
نتوجه
هفو
عرسال
##سفورد
##لينيكي
مدفيديف
نواقص
أعزاء
دبر
##جوازي
تتعرف
فقاع
##هلاوي
أرياف
هوان
يزد
حظير
تتناقض
اسمى
مومباي
باراغواي
##سوس
##عاز
يوغسل
ويمبلدون
نسك
اقتضى
صان
##عزع
كبش
نيوجير
275
##هف
إرت
##بقائ
at
بالاك
عريفي
أمازون
##حيط
انحرف
205
ضوئ
##قرر
مصيد
نضوج
السوي
شغور
##اثن
تآلف
يحرض
##ادباخ
تتحدد
مارسي
خفايا
فودافون
يختصر
on
مخجل
تكفى
مصطاف
##ازيج
زلف
توار
بنج
هيلز
بابلو
فهرس
تمريضي
##خوا
##اكير
يكافح
باسكال
ممزق
أضرب
##شحات
ريج
مشتغل
أضحي
يجني
أسوشي
غانى
مشاحن
دبوس
مساوي
##سيف
##لمان
يرتاح
غارسيا
يتناولون
يتمن
رشدى
محفور
شداد
وعيد
الشحات
إسكوا
تذكار
تلقاء
هوغو
نجاع
يتحد
برعى
##ابيو
قارور
سيلفيو
مرتبك
لفاف
توليف
أطرح
أشراف
سائقى
فاعور
لهو
##اتس
ملاهي
محطم
عوارض
شموخ
تملي
##معان
زغبي
دويش
ألباني
خولى
تؤد
##فية
ألت
حفار
يورونيوز
مآرب
بوينج
مرهج
أقال
كونغولي
تبول
شقاء
##اظم
غزالى
بطين
##اليا
ليند
ناصح
جامح
ميتسوبي
انباء
مشى
استكشافي
رقائق
بوشهر
##ايتون
حيتان
نبو
جريان
نعبر
أتمكن
اتع
ينتزع
انحطاط
استجم
جيلي
بانياس
تنسب
شعوري
كونفدرالي
لاهو
كسليك
##سكى
أشباه
شيبان
لوكا
مساع
سمى
تبق
ملتح
كريستوف
انبثق
يفرز
إيهام
امراض
هدام
همامي
ننس
ناقوس
ليال
معار
فراي
اقتداء
ديحاني
سيني
منشد
تعاق
أخضع
تغنى
استجد
أوكار
أحلم
وصايا
صفوان
يربح
باغ
تلغى
ظبى
شراؤ
ترمز
سكندري
منديل
بيريس
محلف
طربيه
متحكم
أجراء
جاويش
يحلق
##يرن
مسبار
مغير
حوام
يوجب
##تافي
سيغ
بلوش
168
##تاك
مهب
رئتين
تأمر
ثقفي
أخون
استهز
تسلك
طهر
اختصر
إلغاؤ
##وئ
عساكر
يدلى
تشخيصي
أزل
ينهار
تواتر
اغتصب
مبعد
بنما
فانت
مايسترو
##كث
مدافن
حقباني
نحمد
تتشابه
ناهد
ننصح
أبوبكر
إلتزام
نهم
مشعر
هاملي
طائفى
يوبيل
أدبى
مقلوب
ألبير
تمتين
##اظب
حيثما
يشاع
سكب
يعدو
غود
تقصف
تزاوج
محتدم
يتسابق
تعالي
##وسا
##كوت
##نتي
مسامع
جمان
نصارى
بريمر
يدوم
يرقص
باور
كورال
أناشد
شنايدر
إعراض
يرون
يحلل
متنفذ
طولكرم
##افيو
ايديولوجي
جميرا
حديدى
يقاس
رشيدى
اثبات
يلى
يصارع
أنشيلوتي
مورس
أؤمن
جنى
تخول
اسواق
بيات
أقرباء
عبدالغ
لاهوت
ماضيتين
متشعب
استدان
تسيب
أعاق
كيو
##شاه
قات
دينيس
جيه
يعتقل
ماساتشوستس
ريكس
##فتين
جراج
الهومنمن
هواري
جزيئي
عبل
ممالك
داغر
##ارص
حمصي
مضغوط
عثيمين
مغدور
تدشن
عقدي
تلتقط
BM
البروستاتا
Ar
إخصائي
فيرير
مليفي
اريك
خصال
ألوي
إتجاه
تعاد
مخايل
عشبي
بهبهاني
شعث
وود
كراز
عمياء
شدياق
ميك
بقرادوني
ويليامز
##هيا
توبي
علف
##ليج
عتيبى
##وئيل
كلير
##وبة
##يداد
تنبأ
جرينتش
هيلين
متأني
أنياب
ارتياد
يفرج
مستخلص
سينغ
##يرال
4500
ذكوري
##غيزستان
تحس
أجز
##نتس
سيناريست
##اتورك
زمزم
تضييع
هايف
لوبان
طويرقي
يدفن
ارج
بوتاسي
ابحث
##وسو
حكي
بليد
تعجي
تشين
##وقراط
تتجمع
اطعم
بنكرياس
جزيري
اكتسح
منهك
مساحي
وعك
معول
متعطش
اودي
إنترناشونال
وهن
##تسك
انحناء
كارلا
تتعهد
تدنى
شيلي
460
مساير
تيماء
يتلقا
ناضل
رسى
بشاع
##te
الهول
فايننشال
رء
حاور
أحوج
إقحام
الروم
تاه
مشافي
خطاط
تضحك
سونغ
اقتض
##ونداي
نتب
163
مارغريت
##ريو
##بدوريا
نغير
فابيوس
را
نهتم
##AC
توديع
اخرى
ماتيو
صنيع
صدا
##اكوس
تتداخل
أضل
##انيوس
##همك
##تشيل
##كستان
##لياس
اختفائ
##اكشوط
يتضاعف
عطاالله
مكسيكو
1927
السهلاوي
متكلم
أزهرى
تطمئن
حدب
شقاق
جراند
أدير
يشفع
رمح
##AT
تبشير
صلي
مسارع
يتمحور
موبينيل
أوكسجين
نحاسي
كهروم
لمر
تسافر
عبدالرضا
نجدي
سماو
باكو
##سلط
اتق
أمسك
تيزي
اوري
متسرع
##ial
خمول
الغاط
اللائي
انكشف
تروس
كومن
نخاف
جهنم
مفسر
أغصان
بيلا
بوير
جيسي
فيج
تيك
تتجدد
مبحوح
##دعى
دولتان
اصد
ثلاثين
علوى
مرقسي
هيدروك
تراهن
يلغى
تمساح
شما
شاهر
استوقف
##اسيا
تأثيث
وجاهي
أسفار
ابداعي
بوتاسيوم
ماراتون
نقدى
مدخ
ثرثر
وورلد
يتدفق
شمي
##دغ
عنون
نتس
اشتداد
فليب
همز
مليونير
151
رند
نواكشوط
مجتمعى
نماص
قايد
##جيت
تصح
شقرا
محبس
متروب
ينشغل
##ازين
جف
ثمانى
بيدرو
نحوي
مفيش
أدرى
تدليل
يخلط
مهدئ
طاعن
شومان
عربية
كيتا
فليحان
خمسمئ
متلفز
قرائ
ماسك
نحات
##خوان
اللوز
يتخل
تلعفر
##وزين
مفترس
أتوج
بوليساريو
كاسب
أثقل
مشدود
نجلي
ميشي
##end
رهباني
نوفوستي
##خى
##زيان
جيوف
ضمك
الق
رعدي
رواق
إغريقي
##قتى
نصدق
تفحص
##لوسكوني
##iz
##طياف
سيمن
430
بنان
أفصح
بطاني
نفد
1912
تتكفل
بلجر
##شلي
احادي
ليست
رامون
تعليمى
بولو
يقاطع
بداوي
عقيلي
عاوز
مطرف
ابتدائى
كاون
أعتاب
يختبئ
يستهل
مآذن
أذرع
##eb
براثن
##فوري
مكروه
ريفر
انسياب
سبورتينغ
الهولندى
فضفاض
تختصر
##واط
شاباك
فاينان
زيدي
تنقلب
##اسو
تركماني
317
##ind
جرير
أميرال
ثقوب
##لون
215
##ثلج
غليظ
برا
##اظير
دامغ
دسوقى
أصحاء
تيفيز
حشاش
متأمل
اسبوع
إسراف
وصاف
##وسلاف
اكتظاظ
مرام
2400
اعلان
عرج
أزعج
كبي
تكافح
رزم
أبت
مصوغ
أولمبيك
تقفز
إعراب
مخصب
مصائر
عراك
مطلبي
وزيرستان
اهالي
أفران
950
نتصور
ايضاح
يغفر
تخطيطي
Syri
آس
##اطيل
##لهام
ألومنيوم
حيد
لاتفيا
يتاجر
اطلال
قسن
ماركيز
##داي
أمى
تراف
تجربتي
تعقل
تله
بيغ
نسائ
انقاذ
##كونى
حبيق
يكس
أنفي
ريبيري
روبرتس
عواج
صري
تبار
يخول
روفر
كولور
إسراء
##ire
قرداحي
##ذير
عرابي
##عمق
تحاكي
235
لجم
مبالا
ذبيح
دايم
بهر
##باور
نمارس
السويسرى
سهو
عصابى
##جية
تفحيط
##هيأ
تحرز
167
التحام
وما
يتحدى
دفين
رده
معوي
##كرون
راكان
##واري
أفقر
حرامي
أنموذج
يرزق
فتات
نأتي
تحسس
بكي
أقاويل
دايفيد
ايام
صاح
##اطون
عشرين
##تموه
اتر
بلخ
##oog
نيقوسيا
مغالا
فاليري
تخفى
غارب
ألان
يتض
هامبورج
أفيد
يستيقظ
يشتكي
اساسي
تتمركز
مقنن
روبين
ترجيحي
##خرق
جيرار
أوتوماتيكي
##سيب
تجهز
وجاه
تجرأ
باركر
متأزم
متناسق
##انيان
توسل
##ميدانى
قسطنطين
##هقر
شراع
##وفو
منادي
أحصل
تتعد
تبصر
فيليبس
استل
قيمي
هيونداي
منحنى
اثيوبيا
مبتغا
يتفرغ
فولفسبورغ
تلسكوب
مساوئ
أجزم
يرو
يستحوذ
مطاط
يتصاعد
حؤول
أجود
##ime
يكثف
قزح
متدخل
متمرس
مرعى
ارجن
##يسا
اشي
هوف
أهو
باذ
باتل
##اييل
تمتلئ
ذود
مصراع
ناتالي
فنيش
صلص
سحل
##يمة
تصوف
بلحاج
سلتيك
أنطاكي
176
حلحل
يوغوسلافي
##بيني
برجل
سئم
يبدع
أبدا
خباز
برلسكوني
مناظير
##ونيسي
كهربي
##ينك
يتخلف
كئ
ad
كارب
أحباب
اسعاف
متأصل
نائل
رؤس
رميح
وهيبي
زنا
كروس
مبتذل
دحض
##هما
تقبيل
وزان
سبيت
##يناند
أهنئ
يبارك
تطاوين
كولسترول
##وجبا
##ational
دكتاتور
متآمر
كريري
غابي
مقهور
Mar
استدعي
سالك
مومي
أربعمائ
عيدو
نطرون
طوم
جيو
دانمركي
164
جلبي
ميكروفون
وزو
فينيكس
أدمغ
حادى
استنباط
عضي
عماري
##اتيل
متحقق
بتاع
يقوض
ينتاب
اخلاص
ثاب
انبرى
عندى
لبيس
متلبس
##برو
زلزل
نادين
بيونج
أنقل
إجاد
صويا
فوقي
متكي
متطلع
لمياء
##الباطن
قسيس
شيمون
محاجر
أوسترالي
مشفر
نحلم
ألمع
بيجو
عاين
أفت
تشرع
##ذمر
متوفي
يؤشر
شربينى
لورانس
بولز
إنقاص
ماثيو
أسمح
##طام
متسامح
مارتيني
##ثروب
زبال
يحطم
##lay
يحن
تعبيد
##سيح
اعتبرو
حبيش
الميدانى
ارسل
نافق
##يفا
سكران
مقلب
قرائن
يتنفس
##بيون
جولد
سيئول
##حش
ليثى
جوبيه
ملفوف
نناشد
##اديس
فلت
تهكم
فحوى
افتك
##شنكو
أحترم
##صيق
دقي
##OS
نابل
بران
نفتقد
قزوين
نتعاون
كاتيوشا
##oogle
##ريكس
بردى
يزول
##اقر
حيي
تؤرق
يلدريم
يوتا
con
متصارع
كاسيت
مغطى
تسب
بوكا
##انوس
نفقد
مهان
هرمي
أنطلياس
محمدية
كلاوديو
##ll
تجب
تصديري
حاي
رور
متغ
تحمد
161
مسرحى
##ith
محياني
ظرفي
يغدو
غونزال
مسمع
نمتلك
إحساء
art
سيرج
##زونا
##سموث
صبيان
440
ظني
عفن
يفتخر
خبث
##بارى
##فيرا
تعاود
خضيري
مسلوب
جلوب
اثراء
540
كاريك
اختباء
ماكلارين
مقترع
تنجم
##وخى
استئذان
يلقب
##نيوز
تدليس
استتباب
نرض
ينقلب
##غيث
إبطاء
احتقار
اضاء
اعر
##ووس
##اتهن
ارتجال
##بندي
علمائ
حريم
إنشاد
##وكوز
توهم
تشعب
##وليك
يهدم
جيوسياسي
يعوق
ملبس
##غبا
##AB
أتكلم
كريدي
توابل
يتعادل
##زيني
بروم
اتن
موشيه
إنى
حنفى
خفت
إعتبار
أحكم
تعاقدي
تنويري
شحر
فيتش
نساعد
نفور
أبحر
سلاطين
إيغور
عنوة
عدائ
بشم
ليستر
يختبر
رزان
نكرر
ممسك
شعبوي
جهتين
دراستي
##اصد
نوضح
ليالى
224
تا
نعام
استجوب
مشارب
سيح
سيمي
تكنوقراط
يعاون
تفارق
بطحاء
2050
كتر
هذي
تتوسط
كورد
متمن
ميسى
مسمار
بلطيق
أدنا
##ستقراطي
قبارص
كننى
ملهى
حديثي
شهابي
اكو
رأب
##unction
منضوي
توضيحي
بلك
عالمى
يترافق
عايدة
زئبق
520
172
هويدي
يراود
رثاء
An
لورا
ينتظم
##داش
##اكى
سيمفوني
##كمش
ادباء
##ens
ديدان
هاتان
بالستي
متجذر
ترحال
استوديوهات
##IC
قسا
مدجج
طامي
خيتافي
##شوق
بارق
أعالي
عرابى
بارسا
تقمص
##حاف
إسكات
تيريزا
بنجلاديش
رمق
##بريال
نيش
ضبطي
ديفيس
عامى
توجب
تهيأ
بوندسلي
لصيق
##AR
أوتي
مصاحف
جبروت
كولورادو
اعطائ
أسرتي
غيني
غنائى
اخرج
طغى
استؤ
أرس
يحمى
##tern
أنغيل
جيلاني
بورتسموث
فرانشيسكو
##ماز
##لكا
تطغى
حلقي
بيزنس
توتير
ينزع
اندري
عصار
أبوظبى
تثق
تشتد
سنتين
بيئى
ارم
هواد
دكاك
استفسر
صهري
أحسس
مهاب
انتحال
مضطهد
فسفاط
##وسن
بربر
ميا
يصلي
يافط
مناقض
مضحي
هاواي
متخوف
##يستا
##ld
173
##زاى
شينخوا
تطويرية
أيتها
بسك
تتسابق
ليبيريا
يلقا
داريا
##ينه
تحرى
زعتري
يخيم
اولوي
مى
مطوا
إستخدام
معوز
مارق
ارتدائ
##ly
آرثر
أثق
احدى
تسخر
بابلي
بلس
تلويث
##ubl
يتكفل
جوش
تسييل
تات
ايفان
دبلن
أقم
إثني
مرمر
متناغم
كيلاني
متماثل
أوليمبياد
مغول
يوثق
لينش
فواصل
هنيئ
هالك
تسرق
لئلا
شركتان
فخاري
أزاح
هاتريك
سنج
##ترفاكس
رشيق
يعتز
بخور
شبابيك
تنطق
يحسد
مارج
موقوت
استدر
عفالق
اعرف
روه
مسعودي
IS
##تنر
كرمان
ايتو
نبش
يقتحم
مستخرج
أبوجا
قبلى
مونشن
فاره
تفسد
فئتين
قفاز
اماني
أونيل
قع
##ائغ
يتمركز
سوان
##ودان
عيل
فيك
استبق
تارو
جوهانس
ينجو
جدى
رنان
إكرام
اضرار
نيوتن
يسرع
##ارز
سرف
ستمائ
عسقل
مكاري
جلول
أفرام
آكل
قدح
أخفي
صهريج
زوراء
نتحمل
نظن
تهتز
تريني
جوت
شاو
جثامين
بصرى
مسق
قبو
مسالخ
##كوندو
جريج
اورد
ننتقل
مصفوف
يرسخ
سطوح
##هاتن
ينز
برلوسكوني
ثعاب
عفي
يافا
دكرور
Un
مطاوع
عجيل
##ؤكد
أمو
أكوام
اصف
كز
فيحان
##اشير
إمعان
قوب
شرهان
وقفي
##ack
ثعابين
منفي
تخوم
بيرل
##ارية
تيسر
تقاضى
تضاهي
نثري
بيتزا
##ES
325
ماح
ضمور
أجراس
تناثر
نشجع
سلح
كحل
يفز
##تة
تجويع
مهاتر
تاني
يجتهد
أبوالغ
غوش
لوفر
يجعلني
##زيد
يتأمل
إنتخابي
ليش
أشرار
أحل
عجاج
##حض
ألفى
##ust
تكره
بلوزداد
مايل
نفتخر
فكاه
موزم
يمانع
##ماؤ
مخترق
لاهوتي
##qu
قدومي
يسرد
ديري
خريجى
يفرط
تاس
اقتياد
القرضاوى
كوخ
سفري
انحلال
ريتا
نحس
دويهي
ليدز
يطغى
ساتر
سلامي
بيرتس
وليامس
تلميع
تحتفي
قدي
تسند
178
جوردان
1916
كئيب
ماعد
غيظ
اساء
سنوسي
امبريالي
تغدو
183
لامبارد
صعيدي
بوينس
اذاع
يورك
بكى
أهب
##خبئ
##ادية
كامبل
مولع
أيون
إستثمار
تحاسب
مالديف
ينوى
إتفاقي
ولائي
ميني
##طلاعي
مختل
اسمر
صوغ
ديدييه
مشرك
تجيز
أشت
شلق
محتفى
آبي
أمار
##اتها
لهف
تشوب
تعشق
##كيه
أرزاق
مستضعف
أفيون
شرطى
اسنان
أحسب
نضطر
شاكي
لخ
##تفض
كارولينا
Am
نكمل
##رش
##زب
##مالا
فب
آشتون
##انة
موتا
تتراكم
محابا
مصنعي
مدور
يفاوض
مخادع
يفنى
##ich
منتقب
مسيء
ذوادي
هافانا
أدفع
تتفاوض
استدعائ
أسمي
استقدم
ملتوي
ضراو
بنديكت
أبوح
تسيبي
ساينس
شكيب
فستان
ترسب
منسحب
برادلى
شايب
function
شطح
أصم
غراند
لأم
##أذن
معجون
يحجب
تروى
تسعد
اقتسام
##ولث
إدمون
فيف
فيليبي
طرود
ريحاني
شايجي
اصطل
عجرم
ألني
منيمن
##ويتش
بلوتوث
منظف
إنترفاكس
أرشد
لصق
تتخيل
صنداي
##درن
سنبل
تاميل
انتفاء
##كاتر
حافي
نادم
تنين
جلل
ثدى
منهوب
حويج
خوذ
سياف
يخيف
طاعون
171
إشتر
طوارق
محنك
متكون
ونسو
##يمو
نجتمع
##اطىء
رجس
ندافع
زهو
إمضاء
أزلي
##طلون
رجم
سيرينا
أوع
يسك
فيرد
177
يستفيدون
يوروب
تلائم
يسكت
تنتخب
تطريز
إتجار
En
اسمري
1422
ضجر
مخفف
قربى
تيليكوم
حموض
اثني
إحتف
سبح
مكوث
مورو
أصدقاؤ
جارد
تفخر
اجتماعى
إيان
مزعل
اشتي
مانهاتن
أوساس
تتصف
نستغرب
تدليك
مادورو
بقاعي
قليوب
غابرييل
ادل
فينغر
تمجيد
##تزج
حميمي
أحقاد
غلف
تتض
بوكس
هلمند
دمرداش
متحصل
ياز
كيبل
عنفوان
مطيع
اخفاق
تتصور
تتجنب
سريلانكي
##ert
تتما
استهزاء
أعرض
فظائع
إدوار
عرقوب
إفت
##افين
سيون
شبع
تهانى
##لة
ناغ
كارين
عبدالرازق
تقصر
##ندار
يقوى
##ايسون
اصل
حوائط
سلفادور
مكيال
حمرا
يتعافى
منطوق
تطيح
دروجبا
نصنع
كابيللو
زعفران
إسط
كنترول
ملفق
##كاسو
مطي
استقطاع
نواز
مهرج
شريفي
قادري
حنب
206
ينشئ
مشاع
مشعان
##اتن
يجرم
اندثار
أنعم
##تلع
عراء
كتان
نورس
انهزم
انتركون
تبرم
غطى
يجادل
##اريان
هراو
أوساسونا
##رس
ترهل
مقرون
استنتج
##بروك
##io
ينوب
##وسوم
مترامي
اغنام
دكاتر
أضاحي
مرشحو
سدوس
ينخرط
احتدام
181
رعون
##وصي
عنى
تشكر
استجمام
##طاؤ
مدغش
فرشا
تختلط
يغري
منيمنة
لميس
تجريف
نطبق
ريهام
##ابيت
ألن
يفلت
مايس
نهري
مرهف
##ايان
شروح
تايلندي
تهديدبن
نلحظ
##اسلام
169
تايب
الأخوان
موي
مكافئ
عنوس
أشهد
##حيميد
يجرب
وشق
تحيا
سبقو
مواسير
تتطابق
اطياف
تجويف
يتمنا
##ناهم
بهائي
زهد
##وكوفيتش
انجيلي
يسهر
آيت
طفولي
داعى
يثني
كساب
أوصال
جازم
مسلي
نحيل
ياغي
202
قيسي
كوان
سبه
##ord
مخابراتي
عبدالعال
تورد
اختلاق
نبوء
إنتل
مسموم
يلتف
174
كردفان
طهار
##زيا
يدق
أسطر
نيتر
نواح
بورتري
اكمل
صحارى
احس
أوسيتيا
محاذير
أتأ
منزه
هوارى
##اسيو
صيداوي
تفضيلي
##ودن
تنشد
##قبض
##ore
مسرطن
مثبط
ايرلندي
يستشعر
مسرب
تتخلص
دوغلاس
جا
لاند
معشر
دنيس
تناحر
نتحرك
ومض
مقدوني
موغ
مستفز
تستنكر
مؤتمن
عاه
كيش
ماغ
187
يتحتم
قسطنطيني
سلاف
وفدي
افتح
فلافيو
تريم
هارد
##شمرك
وليامز
ثأ
دلي
فالي
##زمان
مترف
أيندهوفن
شتل
هيس
عنجر
##طفان
مذبوح
اقترن
فيرجسون
لول
حرى
ثمانم
##ence
##ost
قصبي
بريدج
##ائش
##لسة
مضف
شعراوى
أقيل
تقان
انتبه
بروست
المحيميد
ابلغ
وازع
روتردام
محتال
بيشاور
رايح
تفتت
اثبت
مسوح
اهان
##شور
##ديوهات
بزوغ
قاطب
كلاوس
متلق
أختام
390
بيو
يتألق
قشور
أرخبيل
ليبان
مسكر
أوفد
فيرجينيا
##ثومي
##ائية
مشبب
Ex
فتحاوي
يستبدل
يسعدني
ذمم
شني
سيج
وطب
أميل
تجدي
بودر
مسطر
##جلان
زاب
##سوم
660
بلازما
DW
تتحدى
متعارض
203
بحيري
اطباء
217
تنشي
حبشي
##مص
قور
قطعان
دهاليز
##ايو
يتغلب
أفرد
مأذون
##طلسى
بالاس
مستهتر
الاسلام
عبدالحكيم
تشان
الأطلسى
دايلي
أقترح
حقوقى
2300
إكليل
اشرافي
تعتذر
محتفظ
أدريانو
##خاب
مالمو
365
ايجار
ميرفت
ورا
ميلوسي
##ئس
فلتان
يقلد
عذري
بذر
داري
بيكاسو
##افيش
مبعثر
ميكايل
إيليا
نتعرض
##يرون
تعرب
قسطنطينية
##عياء
جوفنتوس
يطيح
##ace
ترتد
جونيه
منتشري
وديان
مدغشقر
شغال
##علي
زلزالي
إقتصاد
ابعد
كومب
يتهدد
كاتالونيا
أبرق
تنسق
استؤنف
محار
نستقبل
اقتران
حيوى
ليا
##ثيوبى
مجيئ
نوخذ
1910
أعجوب
نقصد
يجوب
ننجح
انسياق
مكياج
شفي
يدرج
يبخل
اشهار
إريك
عامرى
##زيح
روهينغا
جريس
أهدي
فكرى
سمت
رسوب
كوابيس
مبل
##ئد
مهووس
ليدي
يلح
ممدود
مرقد
جسماني
تحمس
خصر
##ستال
ناطح
نعاس
تضيء
ستراسبورغ
يحين
يونهاب
أزور
هرموني
أكره
بيشمرك
زاعم
قاحل
##ستور
كثبان
ماعدا
ثلاثمئ
متناسب
نسجل
##كنباور
سرى
إنكليز
##ؤوم
تسيل
يقيد
يبرهن
صيرف
غطس
يستفاد
نستطع
##كولن
بوفون
لاتى
##سطو
زوي
مختبئ
جودت
فاهم
##تريك
مأثور
مهدر
ميتسو
زبيد
نوس
تايكوندو
تغمر
نتش
لبان
طامع
طواعي
خنجر
ماسي
إهتمام
أربط
فزيع
##age
جناحي
اقمار
إيناس
##كتين
ارتطام
أبهر
يلامس
##ang
يتجدد
فينيسيا
مكبل
مونيكا
استبشر
عنجري
أسوشيتد
تنشيطي
فاير
تقادم
ويلزي
بروتستانت
كاني
##شيال
اوقي
##تشر
صليبا
أستر
تصارع
تيد
تراضي
اقسام
بكم
##جيا
أبواق
انصار
جوارديولا
سميك
يلوم
##نيل
أربك
عكف
أسكت
تقديس
إكت
مزاحم
مادونا
مؤذي
مكمن
نزو
أجزائ
is
نايم
سيسكو
##اروف
وزارتى
ايقاع
تشو
فكاهي
تنفيس
ودا
مخابئ
سلاحف
فخرى
تقارن
ادرك
كتمان
معزي
لمب
جزئ
رشود
إبقائ
ستارز
فحول
كريات
باركليز
ميثان
محسوس
##اسيون
256
حموي
توحيدي
BMW
كومنولث
شماس
مشؤوم
قضيب
اعيان
560
##اعيب
غوست
يعكر
بافاريا
##براس
حواء
صقري
دنمركي
##عبي
يناد
سفح
##ign
تخطئ
احذر
255
الاسلامى
سبتي
مضمر
اجب
##اوة
موتو
204
تنتاب
يلبث
دعاب
يارد
اجمال
رعوي
نهضوي
متلوي
ننكر
جازي
##كيان
عاكس
جينز
سترو
تؤخر
ميلوسيفيتش
تسفير
##كاف
عياف
توريط
زنجبار
##IT
##فكان
##وباترا
ياخ
أنتوني
##ركال
إيتا
حبيل
##لفت
براكين
سيارتين
مستعين
بلمند
##ah
حكير
ربعي
عادلي
اثنتي
##واتر
باكستانى
توثق
إجلال
اعار
اسئل
كرسى
1911
فتص
##مدون
##نيم
علنى
HS
لاك
يشرك
مضروب
أكسفورد
1908
قروش
خورفكان
أنترنت
منقب
##غرافى
تراجيدي
برومي
##تقال
نزيم
توربين
حاك
مؤاتي
نيكولاي
تابعي
بذي
يتامى
دوغ
##ذهب
يرتدى
تتجسد
كذاب
معيوف
إيفانوف
أوي
يعتص
##دلع
ينفصل
ترميز
قبح
كابر
استنهاض
إبتد
##لوجي
كبدي
سهى
ترق
1905
ودى
أجلس
وير
لاهور
هرج
تهدر
كريستينا
نلجأ
##وعى
تكتف
يستشهد
فصام
مجبل
تشاجر
إحتلال
دفترية
##ليث
ارضي
##كناني
##يريس
بيدر
متحدر
يتعاقد
شارح
كوبري
مرابح
ترغيب
حفرالباطن
ابتلاع
تترقب
##ماح
استطلاعي
عامود
إيجاز
اطراد
بنطلون
##ئولى
غابون
2025
ميغيل
جيروم
اسبان
شجير
متولي
نكران
تحسيس
##ائيلي
سبعمائ
##ax
أوغندي
##ايوس
طحن
وست
تحظ
وكس
##تنم
رافايل
انتشل
يهمل
مايق
##تحر
سيو
سيبيري
اصبع
##IA
سانتان
US
مستاء
نيكسون
أرجنتينى
تفاجئ
##ايفي
أشيع
ممهد
##طراد
السركال
ساني
##نكر
##تراف
##وجو
كراج
##أخذ
##اسان
##يريز
##عباس
يدلل
يربو
متاهات
مودي
دبس
يوسي
سكيب
يثور
هولوك
مقيت
بلدى
غاليري
نتوصل
تتنازل
625
برودي
متسلسل
فتوش
##جئ
مهاري
تفصح
##كورد
غابر
اوغلو
##انديز
خادع
184
جريسي
##تق
وقي
لحيدان
جولتين
صائغ
يصحح
عاهد
مخيبر
ضويحي
كناني
245
أتاتورك
حويل
إيمي
ينع
كيوتو
متفاعل
شيت
ألفت
##تيننتال
نتجاوز
خيبري
جنوح
التشري
هيروشيما
##قفي
##man
مزيني
ماجيك
أجيب
مندس
التشريعى
ملى
أندريس
تجريدي
##ندر
ريغان
نجمي
أوزون
ارتي
واو
اسمح
مئذن
يتسلل
تراحم
ينو
دواس
تيمية
عمم
جرود
جونيورز
يماثل
معب
بيز
زلاتان
غوين
أهازيج
ارث
##ترك
وقاح
نعني
أوافق
انترن
تتغذى
ذاق
مستطلع
مغي
لعاب
تحريضي
فريدمان
ماكان
فينوس
منبوذ
أميركان
أدريان
برنابيو
اشتك
تريب
##سنت
227
يشتهر
بيلين
تفنن
تتلاشى
##وغو
أفلاج
أسراب
KAS2
قرقي
مرورى
إيماني
أسبقي
كركي
تسل
##نيور
احرز
آخرى
##rom
تغريب
212
عليو
بريان
اسطور
منطقى
مولي
##اهوما
أراب
يروح
احوال
ربان
حياك
سائقو
يطرق
ثأري
مساكين
1913
هذال
تفاخر
صاغي
صهو
كش
محراب
اضاع
عيساوي
بيلي
عوق
##اريب
يركض
دش
شريم
ازواج
اصطياف
مجدلاني
##ect
##ابست
سويدى
حظائر
تلاشي
##ذوف
هاس
تغلي
لكح
إنبي
مصيف
فرديناند
أعم
دونغ
درمان
راجم
تشجيعي
##تقالى
مرسم
اسماك
##وضع
اتيان
##ضيع
208
بشاش
طراف
338
برمنغهام
خلسة
موع
يتكبد
##انه
كتالونيا
أغر
موافا
مشلول
عبدالاله
لبى
انجرار
##الون
انشاء
انجراف
ديغول
##ical
خريب
داعوق
مازيم
أوليفيرا
يستجب
اسما
##غناط
فيسك
اخماد
جزئى
رميل
تلتفت
زعتر
شاراب
##ide
##خاي
انكفاء
ميرور
تناسق
أدنوك
##اميد
تنير
جرثومي
تتكامل
يصمد
هانس
إبراهيموفيتش
2200
##ضافر
يختلط
نفاث
مارتينيز
بكتيري
أتبع
لايب
سنتان
##زيانا
شكاي
تتأهل
نفح
أرميني
##ress
يؤلف
حاني
تعويل
اقليم
لورين
##تيكس
احترق
يجيء
##ED
ودود
موبيل
أبخ
نقطتين
##نبول
متسلط
أبهى
فلين
##ابيا
مدقع
يتربص
يعبث
استعب
تجيد
خوارج
يهب
تتعاطى
470
Te
جبالى
نرج
شحرور
##قه
##عمل
عمرانى
بوين
ممتنع
يذبح
ساكت
أله
حرز
العاب
##الس
يعفي
تلفون
فسيف
##بنج
يستجد
خوا
##امنتو
معض
افلام
نقائص
تنك
الانتقالى
إتيان
مقارع
نشك
سامع
دانمارك
الهم
مزح
نبراس
باماكو
زرداري
كافيين
تقريبي
قرود
كينج
يوق
تفوح
##ومين
برش
أربعين
أسفلت
تزدهر
يناقض
استمد
هوكي
وثني
ديوكوفيتش
تناشد
تعجل
مفجر
##ستيا
زلفى
يندد
ترويض
تفلت
نقاشية
ضريبى
ماكدونالدز
احتكاري
باراج
محبو
متلاعب
شات
ناش
##اراغ
##ish
مدام
218
بوتق
نظائر
كاسر
يتضرر
قطني
ليسانس
دياز
توق
احذي
يكتنف
فسيفساء
امثل
رؤسائ
توجس
نويل
ينبه
مندفع
لطال
##وكولي
شارابوفا
هاب
##غانى
تنهى
مسخ
##ودس
##وجيني
رسمل
كوزمين
كوتا
الكت
##تيها
أسوانى
يمدد
أطوال
إسعافي
متظاهرى
##sh
جيزان
عسيران
سلعي
ذاع
هرير
مستدرك
حناء
ايداع
بوتس
متجاه
اسماء
امتلاء
ريجي
أقدس
سجد
207
يستقيم
استلهام
أستانا
إبتدائي
لطالما
ديتين
رتاب
عقيق
علمن
مقاهى
مستفاد
تركو
تقوض
يشاهدون
وزاني
أنتبه
محتوم
قياسى
تجديف
منادا
بوروندي
تليفزيونى
تتداول
##ook
مفخر
وني
##نبرغ
إضافى
قحطان
تائب
تيران
مكل
روجر
اميري
شاؤول
بارب
أكاد
زارع
ضباء
##غناطيسي
منيب
اقتاد
صنوف
انتهز
سكنى
يخجل
زيوريخ
أفندى
داير
يتعاط
مأمن
اغتنام
يقمن
بورغ
حردان
خرازي
استعاض
410
ألفارو
بودابست
قانصوه
سنتم
مخلد
ترض
مهبط
بوستر
سواسي
تقليدى
أيديولوجيا
نلتزم
إلكتريك
كاج
##الت
طحنون
موارب
يرث
نستحق
أمال
نجدد
كنان
روبنسون
نعالج
حاكمة
اعدام
يهر
أسباني
أفرغ
متواطئ
لاتع
يدار
مثني
مازح
جبائي
أسبوعى
حريك
غدار
##ابى
أعلي
لوفي
استفحال
أنشد
نفا
نقاه
غرير
##وتل
ورائ
##ارة
تيقن
اورام
اثري
إستمر
أنام
##ريدو
ماو
ماحدث
عازب
ظلل
قرضاي
فضال
أؤيد
إنهائ
جت
##اتيب
219
فايسبوك
##ميع
ايلي
قصاب
نانت
حمال
تحرض
يزبك
مقتدر
اولاد
الكتالوني
يتواج
640
ائم
مسعا
تسوس
تصغير
##كاو
##ويو
يتحصل
يتجرأ
New
تمحيص
سواق
إيفرتون
مؤمل
تثليث
فحل
إسترلينى
استنفر
فوكوشيما
كامبريدج
مونسنيور
إني
سبورتن
مقترن
عاملي
توتي
قلاد
ديت
اللى
بصيري
دانماركي
سماعيل
##وائى
قارس
متجمد
عفا
مصاعد
ذكائ
شبيح
شحذ
باين
##طفأ
يتواجدون
لاما
ينصرف
حصو
تاتي
راشدين
##طية
نحذر
اسماعيلي
تترأس
نهنئ
فرنانديز
صعداء
##PS
تأهيلية
عزالدين
مقلي
قروني
بروتون
معصر
خني
ورس
طرقي
أبومازن
مشاكس
صفوي
متجاور
var
تتكاثر
مجرشي
يلخص
##وهيدر
اثاث
كلينسمان
سلا
##أي
عارضي
تتقاطع
بينغ
##ft
منهي
استمال
تخارج
إيتو
##und
##زوق
لوزان
طاس
ينصف
عوين
مجز
مستوعب
كايزر
جيس
دوالي
##صبح
فلاني
عطايا
##ick
استشعر
##ريكي
##ونين
مارلين
إقتر
أوساخ
ماتس
مكنون
دروغبا
كمام
متفهم
اطراف
530
تفاه
نجري
دميتري
غوران
غرد
تقهقر
آسر
مشوي
صدقى
بلجيكى
أغوار
ورع
لوحي
بلقاسم
تتساقط
دونيتسك
شواغر
براغماتي
بحمدون
مشاركتنا
ينتسب
متوارث
إستقرار
أحرج
يصطحب
إرتفاع
يتفاوض
أخلص
تصوت
استنفد
بطرسبورغ
دواليب
رتيب
كفوري
طليعي
##TC
تحاك
نظرى
استذ
تشانغ
إيفاء
فيلب
رهام
##sp
فعلى
موعظ
فينت
شويري
##زة
وبيئ
He
شتورة
اكتساح
اسمع
هوك
جبس
زوبع
ترانس
محتكر
اقطاب
يصادق
سباك
جويل
مرؤوس
قدام
ردين
أذربيجاني
بلاشك
مسامير
اخضاع
بخل
سمسار
يفارق
أفلاطون
بشمرك
زفت
معذب
خربة
أنهي
آراؤ
موزمبيق
تشترى
كاميليا
عدساني
حضي
أرفق
واف
أدولف
لغتين
رطل
##ron
CO
تحمى
أفعى
dis
جاست
غيف
أقني
مهران
بانيتا
نشل
مكس
هاو
أكواب
يلتهم
##مئزاز
براجنة
قرقيعان
أعبر
##اة
ميغاواط
تقطير
وثر
##زومي
هيرميس
##قراط
طره
ينبئ
an
عبا
ظلامي
اوف
يعمق
ستائر
يطبع
معطا
أكابر
خريس
سايت
يحبذ
إيذان
سيرو
ديو
هوت
هوشي
##خون
بارت
##شاير
##زيو
عبدالإ
شياح
جنيفر
مورث
تحاكم
يحتفي
قريتي
اشتق
أبوالغيط
لر
أكشن
مثلج
##دنافي
بفشل
##اتينوس
باتريوت
نفض
نيكس
ملز
نجلس
تلون
##MA
نوفاك
طرز
خورخي
أوكلاهوما
شاعري
تحامل
##كياء
تلحظ
##شيم
##سبورج
وسي
بوف
أفندي
بإم
ميغا
واني
يتعب
ملحد
فإن
مرغم
بردي
مشيع
بصيص
ابق
##غدور
##تجاوز
ستاند
فيغاس
تورنتو
يفضح
فضلى
تلخص
روبينيو
رهون
طاجيكستان
يهيئ
ابدأ
وصم
##عبد
تلاق
وانغ
##تاق
مشرقي
إستونيا
209
##ary
تطوري
نافور
ننقل
لومي
محارم
صدأ
تييري
بروتوكولي
كيرى
يفرغ
بغلي
1860
213
وتي
اجتر
استقراء
##جرى
اضم
أغار
موراتينوس
قوارير
يغسل
يضاهي
مكابر
كنج
##ولات
التقا
نفيعي
##ويين
قمص
##كوان
فرقاط
فانني
لاشين
اعتق
إذعان
انعطاف
حالما
اكد
مؤن
تفرع
##ستغرام
ارباح
ستجد
أوكسير
##حمد
كانتون
هوجو
يؤذي
##اضروس
تابوت
غوردون
##احيلي
ألغاز
استعباد
##يبال
Arabic0
احي
يزين
مضيع
يطيب
تمتنع
216
مرشدي
9900
سحيمي
رات
ضرار
طحالب
تحط
يدخر
سطايفي
آدمى
##زيل
استعل
مسوق
املا
##تلي
تنج
ميسان
انسب
كافى
قلاعي
بطولتي
متجمع
ستيشن
اتي
لحى
مورجان
Se
تحتسب
راز
##عازر
متعادل
مرتدي
توبيخ
تنامى
إحداثي
يتشارك
وكير
انفصام
كفرش
ماند
La
يعبد
بنغال
مغرم
يفتش
رديء
طبنج
##زراع
يتسرب
زقزوق
راوول
ماست
بندقية
pro
##ذبذب
سحيق
فلكلوري
##تيف
248
جاور
وايد
ميال
سويق
سيلفان
أظل
720
شبلي
إعياء
يعيب
اقرب
##طينة
يرجو
ابتهال
إكلينيكي
تتسرب
ماتيس
يتلاعب
جباليا
افتخار
يتجاوب
عليل
يثمن
أضيق
أضرح
يتخوف
نرضى
##ber
مستف
ميش
اندونيسي
غضبان
أضرم
لدغ
مفبرك
تعكير
أنامل
كروبي
اشمئزاز
جيوفاني
أورب
عشوائى
كالياري
اعلامي
##ai
توارث
خون
إليكتروني
الص
تواضروس
ثريا
ينفجر
##oy
صبايا
بورسلي
نتناول
غضروف
غربل
سعدنى
دلول
شجعان
بيسكوف
معانى
عيناوي
مدائن
يتربع
ليما
##جهام
214
تخطر
كليوباترا
ليوب
معصي
نكتفي
يظلم
تنط
يعج
شلت
حكمي
فالس
معزوف
ميتسوبيشي
عراف
مناد
تعويد
تعاميم
رباعى
فيرغسون
قزي
يناضل
مفلس
ريكارد
آتى
أنابوليس
هوارد
نويبع
عرو
قربان
طمر
مونرو
مفض
بندور
كيروز
مواظب
أرسطو
بسكويت
اتف
مدل
حجرف
##شحى
نستمع
فتاتين
بدد
تتقاسم
أضلاع
##حضر
##لخت
نكد
براينت
مسابح
هيوز
تتقبل
تبوأ
يسند
كمائن
يصد
دهناء
كاكاو
##تدي
إحتي
أشواق
تدميري
اطفاء
قارع
##ورز
جالون
ركع
##اندر
تنتمى
مبعث
فيلكاوي
نهد
منجي
يتولا
غبريال
##ولت
تعانق
بلفور
أجوائ
كوكتيل
غريانى
منغوليا
##جمع
##ساندرو
فانوس
مبتعد
استنط
انعزال
يخدع
تنبعث
##وبو
يعتري
خنادق
بكتريا
جديدتين
##are
تشرشل
تحقير
كامر
##hed
ذقن
ارشادي
عوير
##تاه
أيقن
تيان
اخلاء
##عوذ
تحال
يحاكي
كفرشوبا
فلم
تتبلور
إيميل
عصم
نأي
سكولاري
يسبح
رءوف
##تقى
مقرض
ألاسكا
وغ
تشع
226
انهز
##وليا
##ويرو
عبسي
نرجسي
انفتح
متقاطع
رميا
620
يتأتى
كهرومغناطيسي
حكومتي
اجبار
990
تدنيس
نهدف
جرثوم
نمش
شافى
##هامبتون
اسفل
ايديولوجيا
لاإ
##جانى
##وخي
زواح
اتحدث
بيجي
بعق
كرداسة
نكات
حطاب
##ميمي
أحتاج
دواع
أولد
سامرائي
طاغ
طباب
تشرق
##زداد
استعجالي
تبلي
نفترض
مقالع
فرخ
يحمد
كتفي
##اظر
يتخرج
يتخبط
عبدي
نزوع
إيك
احمري
1901
هولمز
BBC
ملقة
غواتي
##ug
حجيلان
موجي
روزفلت
صافح
أرسى
يتوعد
غوميز
بلياردو
مدخول
هديل
معشوق
##اديوم
أهدا
اقف
ترجل
ستير
استيضاح
استذكار
أمارس
285
##TS
تنافر
نقترح
إرس
غينيس
مأسوي
جفاء
نسيجي
com
##موم
سدحان
رجيب
عوج
##TV
أسقفي
يشع
حناجر
جيروز
تشتغل
راود
أنيمي
يؤرق
إلصاق
هلسن
آلاء
نبارك
غارد
تعزف
ديما
مظاريف
إسطفان
تستدعى
رسوخ
ايطالي
نسا
منتقا
اقوال
مندوبى
أفيغدور
أشاع
##غلادباخ
تغفل
أفري
آث
دفعتين
##EC
مقالي
إعجاز
تتبدل
تخزيني
صحابي
هندوس
1421
عبدالإله
بوبي
##خاش
##بالفيديو
ستانفورد
أوروجواي
احمرار
مارسيليا
##موني
أشجع
امين
بوه
##اسن
أقربائ
اباء
تأسف
غريغوري
مفجع
استدعاؤ
ايراد
سوسييداد
لونغ
يحرس
جش
يقد
نعى
دكاش
##تبول
غسال
عروبي
تشوف
أدهش
مستتر
احترف
دانا
ولات
سراييفو
ساجر
دعب
تفضح
ميكانيك
أجاد
المر
##تية
جانى
##لمذ
تتار
Publ
ابح
رفيد
إراح
مواطنو
ثالوث
بايع
يستفد
مالاوي
كافح
زواحف
##تشا
يتكلف
نمنع
طانيوس
اجند
اشغال
مفروم
##تهم
نستعد
شهرزاد
إلين
تزعج
يربك
سالت
##اسير
ملاحم
تدق
رباع
by
يورغن
##ابايت
تقتحم
تكنولوجى
كارو
دريس
##قاعي
استشراق
فراد
إليس
عماش
ارمن
##فك
المع
مظلي
كباري
أدر
نقلي
##سينغ
استديوهات
امتهان
ماسا
تراوري
انبهار
مشعوذ
فاك
ملطخ
داغستان
##تسي
هيف
يسعف
ابرام
منجمي
موفر
اجمالي
تفرح
زريق
هولوكوست
دهام
CD
نفيد
وسكي
وشاح
ركون
مخالط
##بة
##ارتا
تغزو
راجا
جات
##ظو
عملاني
1906
استخرج
استزراع
تطفو
قلاقل
ادخل
رذاذ
تحترق
فرانكلين
نافل
##ركم
تفان
جريش
لويد
استورد
ممفيس
معنون
جحا
مأكل
ينه
مضغ
##كلاند
قساو
##az
يستثنى
سيؤول
تثار
##أسب
اصدر
اصبح
##حرج
1909
اظهار
يمهل
أوعز
بوشر
يضيء
يتوق
احلام
تحذو
نمد
شراحيلي
منتحر
##100
مائى
مأزوم
مستخدمو
ساندرا
تحرري
##مارك
مانشيني
##علك
يسترد
##تينو
أليساندرو
IC
##اتهم
تشق
دودي
##ox
##وفاكي
مستجوب
ومي
قاعدي
حبت
يشتد
غرز
تآخي
عواجي
زقاق
##ومون
برجوازي
تهزم
يكفر
اسند
نثبت
##تيش
ممطر
جبرائيل
مرآب
عسقلان
##يدب
يلائم
تهديفي
##فرج
مارسيلو
تلبث
##xd
سنابل
برونز
هباء
تقفل
أكاديم
ارثوذ
رسلان
غوريون
نحضر
##انتس
##ستروم
يؤلم
ترويح
اجي
##طون
مزن
##ON
##ork
نتمسك
ومس
يارا
##ستلر
توجو
متوكل
غفر
روست
رفوف
قانصو
نفوز
تدن
يحوز
روحى
لقمان
فيرم
مجذوب
يمنا
أشواك
لجو
حكى
مريخي
خزع
يقهر
مفزع
تباطأ
دويسان
فلكلور
أرهق
هجاء
ريل
شخير
منستير
مثوا
##200
خاصر
##صدق
##اميس
مرقص
مكار
ملتصق
استيل
نأكل
فأع
ساكر
ملقى
ارقام
صدامي
جلستين
ابراج
يحاور
حربة
630
ذكير
مجهري
أسانج
تبذير
اهمي
مايع
ذخر
ندع
إيعاز
##جواد
توغو
ألو
##ثيلين
كفن
جلباب
ملئ
استحي
كفء
بذلو
جاو
##نيكوف
يؤسف
ليبرالى
بينى
رجي
زغار
سكراب
##orm
حقى
تذوب
حطي
تقال
كماتشو
توفق
أفاق
أتال
فابري
مراح
سيستغرق
تمتص
صفين
تلاش
مؤدى
##اخت
تنبئ
اصطلاح
##خف
بلاس
فئتي
اسكندر
سبائك
بذخ
##أنس
أتش
ستن
هرول
##وهيدرات
وحل
انتصاب
باروك
منقوش
يتلخص
يتطابق
بريكي
نيكوتين
بنغازى
##افيزي
برين
أعزل
يطيل
ماسترز
##uc
##براهيم
ألاعيب
223
##حيلبي
فوس
تماسيح
##نطيني
تنجب
كريستي
مآخذ
مطامع
سحيم
أسمهان
نابلسي
فساتين
##يج
رودريغيز
ينزف
مداعب
المحيلبي
أميني
جاماي
sc
عرسان
هويمل
امريكا
أمامى
أغفل
228
سانتاندر
سارس
ماريانو
##res
##AP
عطاس
##ond
موزون
لاتن
نيبالي
قوبنطيني
##تسو
فست
##اوير
يفتر
حدا
تغري
يفك
معاير
##اكيم
##وبوليس
أزيل
مبدئى
ART
1904
1907
Sc
أسدي
إكسسوارات
ذيد
يلب
نويصر
نميم
نغفل
حداق
نهضاوي
نتلق
دولاب
نمسوي
أقطان
ترحاب
إحقاق
فانك
كتم
##تيوم
ستايت
##كوش
اغراء
عجي
موشح
نسلم
رشدان
##ومير
استفاق
صحاري
تفنيد
إرض
تلد
نقابى
خويل
معكوس
ارحم
يسرني
منسى
امس
اسعافي
تاور
انظم
يزاول
اعتراضي
##تراوس
##اينا
سلحفا
حريتي
##يطانى
كوينز
رضاء
تستقيم
أتخيل
يعير
يشتم
حلواني
يانوكوفيتش
ليمون
ch
حرث
أدام
##وبل
ديمان
ابان
تفوت
##ينكوف
فيله
مخزي
جروان
خشاب
غاوي
نعناع
ننطلق
توثي
غنائم
انبي
عبدالرؤ
ميغاوات
زعر
فجع
باسك
##ذذ
بافل
##وشينكو
##ern
ترقيع
أسجل
عبدالجواد
أدهى
كروموسوم
مشوش
لنس
ضدي
نافس
##ريسي
امسك
يغطى
اجراؤ
##زما
مسىء
عولج
ألين
##ذال
مساعى
عذوب
فيليبين
هنيدي
أريج
مارى
راوغ
جينوم
ساط
هدير
##غارو
بورسعيدى
عبدالمع
تكذيب
عضد
توفيقي
يبس
تستغرب
ثويني
خورشيد
متشن
لكننى
توشكى
فيدير
تشتبه
##تعش
تثني
هضاب
استطراد
ستقيم
ليفوز
that
ابحاث
منوش
ديماس
جياع
إتهام
يزخر
##IV
تلتهم
##بسون
اعتلى
تستبدل
اقنع
شبيغل
أقواس
كيال
أمهل
##ID
يستف
طنب
طفيل
خصل
تنزع
بريج
متمتع
إكسبريس
أعتذر
تحتكر
##ath
قيراط
قرقاش
نشمي
شاوي
##بروم
مقاولون
##وكسي
مبتور
جادل
##وسلوفاكي
فهود
مداح
تذرع
غزي
دباس
تخطو
أتفق
أتا
عاق
لسع
لوجي
شاري
غرفتي
برامجي
##ve
##ومط
شهب
التئام
##نبورغ
هضمى
كوماندوز
فأس
قعود
##ood
تضخمي
دفي
كويس
حبذا
فرغلى
اندمج
غاو
نعل
معطف
نوادى
أوجلان
مكاشف
مشتت
خشخاش
شقوق
اغترابي
##بيرج
روغ
##توش
مواطنى
نفرح
تنحدر
315
هرتا
بعير
ميكن
اشاد
متناحر
##كزس
##ورخ
انصب
أفلت
##أسبوع
اصر
ينمي
دجال
استهلك
أتقن
عفريت
أختار
##roll
دعجاني
هايل
تصعب
إجحاف
انقب
إرف
ورب
قافي
يحدو
دويق
أخبرني
تراعى
شامى
مشط
نسختين
ترقص
كرش
تشجيعية
نحول
يجتاح
##ناك
استرد
تكذب
بيرد
إبصار
كييفو
أرجئ
Ph
احتشاد
هاورد
ناطور
نفيسي
أفترض
ليان
واعظ
حرجي
يهوى
238
##اكيت
دراوى
أهلك
##كتس
##orld
إيبولا
##ورع
##وليني
تركب
580
ميلووكي
مقطعي
وارنر
يعزي
دفعني
رهاب
بوتان
مجدول
سكود
أفدن
ليخ
كيسنجر
أبوإ
سواح
آصف
أذكياء
UN
طبائع
يتبادر
إخص
قزم
إضرام
محتشد
زغاريد
مهول
تدخر
منقار
وزارتين
دغيم
ظفار
نظهر
أشم
##بنك
جاروش
نتخيل
نضار
فظاع
تحفل
يصلى
وضاح
ابتدع
##ass
بيم
رازي
غاف
##بخ
أبطأ
##وفيل
درامى
يؤم
تتنافى
تكافلي
دهاء
إصغاء
تشفي
استثار
لويزيانا
أبوس
امسي
مسلحو
متظاهرو
تجرؤ
تفيض
مصاص
تتلمذ
نقضي
أفضى
يلمح
اتلتيك
تستجب
يبالغ
##يفواري
بهم
معاشر
##ترئ
فولكلوري
شكاوي
شارلوت
تعويم
تطاير
اجتذب
جوابي
الإيفواري
فرا
##بيرا
نتخلى
##تانو
كورى
##بلر
ذرع
بخس
حواف
إناء
مويز
ارتجالي
رأيى
تشيكوسلوفاكي
##بتين
مشتاق
##جارت
زائ
ضومط
طبرق
DP
حوامدي
صاد
عطال
يستورد
نواحى
متحجر
##ائلية
بييرو
##فراد
حشائش
تجاور
246
ذيول
فسيولوجي
بلجرشي
مندمج
اجداد
زماني
يشأ
عيض
يصفق
##نتان
تقبض
عبثية
يجدي
بارودي
رومنى
##وغرافيا
تغضب
تتبوأ
يندم
تسر
أريزونا
أوزيل
مارجريت
وفاض
ميه
تؤتي
إحيائ
بلوشستان
يصحب
كادح
##سمح
أنغولي
حماه
زخر
نقرر
سديروت
غيض
يعتدي
تنادى
امناء
عنز
##يله
أزمان
إقطاعي
عطب
ربى
أعشق
عبدالرؤوف
إتخاذ
امريكى
##غلق
نفاجأ
أفشل
ميروسلاف
وقيع
شخصيتين
إلحاد
لمرشحى
بورتريه
##ورث
##وبين
شركتا
يانصيب
انحاز
هيومان
نقطع
KAS50
معاصي
بنجاب
تباهي
يكترث
موزاي
ابرشي
متاريس
##ail
فوتبول
ويك
مقود
برقع
ناشيونال
شانغ
##هاوى
كابين
1903
##وتى
مخلوط
570
انترانيك
##رمان
متسلح
داه
##سماعيل
غواي
اال
##سيون
time
قساوس
حيان
منزعج
لاتح
ماغوط
إيثار
##ile
يتوان
أطال
##داني
صوتى
Ad
أكف
أتوقف
##ear
##اثم
أسبان
ستت
كارلتون
يتجسد
غراهام
نراقب
آرسنال
ثير
يكد
تكميم
فلورن
لارا
تصوي
770
زون
اتحد
أندرلخت
مولوي
انثى
مستعر
Bl
تعبد
شاور
أنثروب
دوخ
ينسق
نبهان
مونيتور
فيب
كناري
هيرمان
سنودن
يخلد
روميو
أرمي
معياري
باليستي
زاخ
يضخ
اخطاء
آسيان
239
قسنطينة
استدراك
أومي
فوجي
020
زاك
عير
يتقاضا
توثيقي
##برة
قناوى
وفاقي
الدانم
حضيض
هلسنكي
خفق
مشهدي
ارتجاج
لايمكن
ضروب
عصابي
مرتجى
##olog
تفشى
1250
أجرام
##قدار
خوص
فجور
عرائض
يخطو
مرحاض
إيزاب
جزأ
مجرب
برهوم
أحقق
بيكو
نيتش
خريجو
عجول
أعانى
ينفر
##وترن
جزاير
ابنتي
خفافيش
##ولم
1420
شايف
موغابي
ثيران
تصمد
تفجيري
صموئيل
قورن
ارتاح
عيادي
ساه
هيلي
##ult
اوجد
يسلب
إكوادوري
تجتذب
نيلي
إعطاؤ
##ادمى
تثبيط
ممدد
بريتش
سفوح
موغل
##للي
فداح
اضراب
إمت
253
نرجع
متعاط
##ستيري
بلخادم
اكي
فيسن
مطحون
جلوكوز
هاربر
نشار
اتذكر
##قباسي
سايد
يقذف
يشهر
سكور
ليندا
زوما
نوبى
دوادمى
خوارزمي
مستكشف
انتعش
أولم
ميتافيزي
كراي
مكاوي
كرايس
اسحاق
ابتلع
كليم
يندر
مديرس
كارولا
جوهانسبرج
تودي
طلوع
أردوجان
إغريق
معمد
تعكر
اسرع
بروميتش
##نجي
اتساق
كازاخستاني
زاحم
تجند
سمسم
سوربون
اسلام
مجالي
مصطحب
##ترون
إحتر
خبايا
الدقباسي
عضال
بترا
نيوزويك
يمتص
272
جيروزاليم
##اجين
يعتنق
تطرد
##ابو
بوشهري
استلهم
أتون
غوينم
رتل
##كوي
تغمد
490
ملال
305
كارلس
ميشيغان
عفان
اوم
سوداوي
نيستلر
تهامي
مأخذ
##اسد
عمام
اوص
راسب
كونتي
ملحمي
كناي
بولوني
فريحة
لاأ
يحفر
ليج
بوشري
ذب
ميتران
أذيع
نحارب
إيقاظ
يشبع
سفاري
يصطاد
ابين
هوشيار
المرعبي
##اثا
مأتم
فريدريش
فاحص
يصمت
أتلف
سوشو
معملي
مداد
يحط
تفسح
لاد
مخاطي
236
ينسا
مقامر
تمض
نورى
##جابايت
ناجز
لجوئ
امتاز
كليبرز
مرتاد
1902
هائ
أخيرتين
غواتيمالا
أبصار
221
##زوز
أوجب
باربر
انطوني
جاتو
شفاع
حمزة
Syria
فتصبح
تبحر
211
232
منطقتين
رخو
إذكاء
فولاذي
تحلى
##وهج
تحاشي
##دوش
مكرون
##اشفيلي
صقع
مرصع
انزلق
أعدد
تشكيلى
غائر
روش
يخون
ديبي
جونج
ابقى
##تموها
باردو
محسود
تخم
غرائب
مستوحى
منشئ
مودرن
قناعي
##اويد
متحدي
اوض
عسع
أموت
جهال
نجيم
اندهاش
يسيئ
يعزل
لهم
##يروس
أغشي
تناسي
بحراني
فهري
أهتم
آيد
##افان
تشاك
تصادر
التهم
منوشهر
عصبى
فتست
تتفهم
تتبادل
رزن
منبج
كديم
لاير
ظم
هبر
بوليفي
موزاييك
##اليزا
تأبيني
خضيرى
سيكولوجي
قهري
إسطبل
تعديني
بمن
تضاءل
لكزس
استدار
أمضا
دعني
ارقى
##بابة
حبتور
تعدو
ميدلز
مجسد
متأتي
غباغب
ضام
يحصر
اضف
إطاري
ابرار
بهلواني
el
إئ
نموت
أرشف
فلذ
عانق
اعجب
يحجز
خانك
مأموري
متمم
بلسم
جويس
باهي
680
شحيح
اريكسون
ويمبلي
سجان
نهدي
فيليكس
سمبدوريا
إنتهاء
مكبوت
عائلتين
273
تعاس
طاحوس
مونشنغلادباخ
أحمق
يشوى
اغاثي
ناسيونال
أرنب
##ابيان
رضوض
خزي
مضاء
يفيض
حرستا
يروع
مايلي
هانئ
تريح
استدرج
اعطي
عزائم
حذافير
هري
##AM
انكليزي
منتهك
غيغ
وظيفى
خراطيم
يبل
نورد
تندلع
مكين
سفياني
وبح
عروش
مخمور
أريحي
صنز
قلقي
مترافق
أحيائ
جوم
يتباه
##واخ
تنبثق
رافاييل
غنائ
يستخرج
يطوف
ماسح
ليفانتي
امبراطوري
KAB
تولا
هدوئ
اقصر
ماسور
يلفظ
##طفائي
معارضو
خواتم
استوطن
1290
يردع
توبكس
ألونسو
تبتسم
نتأكد
يحبط
دوش
##موس
مزخرف
مقتبل
جايمس
##AD
##عيب
ريمي
بزن
امتزج
زيتوني
ينقض
##ائيلى
سبان
كراسى
ارهابي
##هاوس
تمهل
داربي
يفض
نواع
نصفى
عزوز
##صفي
هذيان
احمد
##ere
نستعرض
##oh
بيروفي
استنفاد
طمث
منغلق
طاو
لامب
أهلاوى
استثمارى
##شيري
##غيني
شركاؤ
ايهاب
إيريك
بلوط
انتل
أحدى
##رجي
أكادير
أيرس
تبل
صوير
ميكي
بترايوس
##شينكو
أنشود
ديش
شثري
مهدم
إقص
مشيم
مدفن
##خوت
تختبر
نمضي
وخز
DS
قوارض
يصون
مجروح
افراز
عفيفي
بادل
##ظمي
أندراوس
عسا
يمكث
يتقابل
جاحظ
خيران
##نكو
مغنى
يرشد
أكاديمى
فانكوفر
##صدع
قردان
##ET
مسؤوليتنا
##عري
جانبى
نعول
موثوقي
أنطونيوس
كوبنهاجن
##واخر
داروين
مملوكي
فرامل
1501
بحيرى
عناب
حمري
##دسون
إكرامى
ترافع
كورتي
سرو
##غرو
عادم
افتاء
مساحيق
يارب
تنضج
كتال
زبيب
سقراط
مسدد
تسميم
متفشي
طايع
يتبن
مصحح
##ock
جوخ
مشمش
عناقيد
اضع
سطوع
مافريكس
يمزق
تهتف
غوغائي
دلف
تقشير
يتألم
510
PY
##me
شرذم
تقرح
طشق
##ئا
معتدى
رافائيل
جيتكس
بذيئ
##ach
قنب
مندهش
صني
ديوب
مهموم
طاحون
صافولا
##خاذل
نخبوي
قرطاسي
ملقي
##تيريا
##per
يتوسع
##ويحيى
غليون
نرسل
يراوح
##ابيل
طشقند
منعدم
##انوفا
افكر
##زمت
##ترفيلد
##يرة
مشخص
تواق
##نفد
مفتون
جواري
تتكبد
ببل
مفتشي
موردة
لبي
إنجابي
بتول
ريشار
افلاج
نصيف
مانشي
قرغيزستان
أريتري
ترينيداد
نتبع
مستحب
7500
بخارى
طها
أوكت
نحمي
أخلاقى
كاتانيا
ادعائ
يعجبني
كارن
بودول
##هكذا
ايا
خشوع
ميسون
ظنن
عوم
يعزو
2021
يتعاطف
##وريد
أصبع
يشترى
سويح
237
بازل
فراج
مردخاي
##اكوف
670
مشوب
بروناي
فاص
##EN
##ليتي
اعتدائ
شتوتجارت
غاما
يعز
تقشفي
تأرجح
##واؤ
تونى
يقترن
شاوول
شفاين
شحيم
صديقى
مستوفي
راث
شفيع
جراي
دلوق
سايمون
يمسح
##حيز
اقصاء
##زيما
نفساني
نيستلروي
ورن
أبوإسماعيل
ارواح
بترولى
نايلة
صغ
ضبي
نستعيد
مهبل
غزاوي
أزعور
بوفيه
كومار
##تهان
نيكل
توزير
يتملك
خطئ
كينيث
قباب
نمنح
استحياء
غصب
تباد
##ينسكي
تروح
عنصرى
تضا
كاين
ارض
صحون
إرسالي
##كتو
دارا
تنعى
سينودس
حمائي
أذهل
ظنون
إعدادى
شجن
وقر
##اتيزم
مضض
حمس
ملوى
تماهي
لينكولن
##بدى
عصى
نوافق
فولفو
ضنك
ياي
وازن
فتئ
بينيتيز
كارولاينا
يبدد
##شجار
فلامن
جاى
عرى
إجار
اسمنتي
اوربي
ساور
صبان
مومياء
سنوات
مسائى
تشوي
ابرم
زغيب
مفكك
قضم
خزندار
غباغبو
##حمون
شعيل
##واءم
تنفصل
##كينز
واست
يمتع
ابراهيموفيتش
##براهيمى
الإبراهيمى
فينجر
مستميت
##تحن
ستايل
يصبو
صدفي
الدانمرك
أتو
كوباني
روراوة
أيقظ
نرب
##تسكي
بقد
نبيع
فروض
متسرب
مرتكبى
بوارج
يمزج
التواء
نكاح
ثمانمائ
انحسر
دلل
##لاينز
ابتكاري
شغوف
راسموسن
مهاتير
نتق
نصدر
يعتزل
طام
وسمي
IP
غبيري
##iss
ودعاني
##تهانزا
##تماء
ريبي
مزدلف
اولمبيك
اردف
يبي
أنعش
تمانع
تره
برادلي
يوغسلافيا
##ملك
##ضور
سياب
بلايين
254
##وزر
حماده
مغاور
##حلل
6500
كاريتاس
Man
ساجد
كاريكاتور
قيصوم
ألبي
##ance
مفضوح
مجس
سيخ
إيز
جارودي
تعيس
أرستقراطي
يطاق
SMS
معيبد
لورنس
يندفع
تاتشر
la
مهترئ
##شتاي
صبار
ضفتي
306
أمبو
انتدب
يخطب
252
مطرز
أوبل
نشتري
عياري
خمي
هراء
أسمو
نواعير
اشهر
اسباني
رواندي
مشنوق
تصوري
رعيل
##غانغ
رحيلي
استوجب
يتحرر
##ولون
كاتس
##ory
هنادي
##ينيت
تتلقا
بيستون
يكتفى
##ربون
ساكرامنتو
##ضوي
مصوت
يستدل
##AL
أتطلع
تسبح
wh
نادل
##الأ
أساطيل
شمن
##اتيرو
تتساوى
ستور
هشيم
رقى
##نايل
You
خفير
##بولي
كيبيك
with
استسقاء
مجادل
حميمية
انطباعي
##نانت
مستندي
طحان
تستمتع
غاروس
الهوا
متذبذب
مسام
متسلق
سروال
أريك
أشي
بنزرت
طريفي
تردى
قتلال
335
صبياني
هوليود
##سيان
زواوي
عويل
##تبك
قتلالأسبوع
زغرب
نوك
جلائلية
234
تتجاوب
فروج
خميسشجار
عربيةهكذا
##زلي
تراود
##ished
##نية
طولان
##انيم
أوثق
تهمل
بغاء
خوخ
قاز
مناقب
247
متحارب
عني
يتورط
كيوتل
يفقه
##عة
يعن
نهرى
مونديالي
غونزاليس
نأسف
نقاتل
257
مرتجع
رايخ
عمائر
تلكؤ
دفوع
نونو
جعلتني
طنوس
شتا
##فيص
لاغي
فينو
بسال
##ونانى
يعتاد
نتأمل
بشور
ملاحى
بومباي
شذى
حلبا
أفسح
الشي
##كونومي
229
2700
فوانيس
طبرجل
علك
عاهر
فاتر
مكائن
تطالع
حالف
إخراجي
عيط
زيورخ
يشي
التهام
متسق
##طاس
مصيط
نجعي
بيرم
يغنى
لوفتهانزا
جوردون
##كة
مكسيم
اندا
##سوني
##ينتي
##ماظ
##نتينو
مزاحمي
أوستراليا
##شيش
ترويحي
كنيدي
A3
شاحب
فرانز
محتشم
ريبور
تعزير
ميدلزبره
تهيج
استنطاق
##لهل
اجهاد
تكريرية
يجزم
##ضحى
موندو
إدواردز
سدى
عبداله
برغش
اممي
تتكلف
أدمن
##شنز
قث
دلع
نلوم
##400
##فغانى
عاموس
##ندو
##سدن
ابار
مظن
مورينو
أحلك
تؤذي
نخو
متاع
##سلاف
اليونانى
##تاكور
##غلغل
اشعاع
ملاعق
إخفائ
يتعود
خدش
it
تقلع
كوكا
تترافق
تتقلص
موراليس
هوفنهايم
كونراد
بواسل
تواب
امثال
308
منهمك
يتهرب
بارج
جندوبة
##هارت
مندوبو
تراكيب
يستي
تضاؤل
دحيل
le
رومية
مهزوز
شيرت
تثقل
610
##رئ
إعتماد
فوازير
##ark
تتغلب
عوه
##act
بقل
احسان
بكل
يسيل
اضغط
مصيطب
اقصد
ماسيمو
##فريد
أهوال
رشى
كونت
طقم
##اكولا
بريمير
أزرار
طرائف
لايح
دهوك
الأفغانى
عتق
دامور
##ورات
بويول
##ase
جائح
قعيد
##ائخ
##اسيميا
جوري
سالمية
اقلام
اولد
إيقاعي
صيفى
عويضة
متغيب
هيون
نلقي
فينب
385
ترتاح
عباقر
اهمال
##تينا
حقيل
طيبي
غمز
##pe
مخدوم
أصفهان
غلاي
737
كايد
##سيري
##لدورف
طاشناق
تثري
ناميبيا
##زيغي
يخرب
ديمغرافي
حفص
##امد
AM
شطار
مخالب
قامشلي
5500
لاهيا
ليسيه
دونج
خشان
كربوني
##قتل
كيمياوي
قليع
مبنا
ممتن
تختزل
ترطيب
آباؤ
شمات
##ؤم
نقاشي
اجنبي
أستوديو
استرجع
إجرامى
بقدونس
نعلق
##اعس
خسوف
بردويل
كلاين
استأثر
يساور
عبدالجبار
سلق
إختيار
فيدري
إستقلال
إستمرار
##ايض
266
يشتكون
يحترق
أستاذي
جانيت
##ومتوس
##اديتش
اشتراعي
زيمبابوى
ربيان
لباق
دوفيل
جامايكا
هيرالد
كريسماس
راى
اعلاف
سكوير
مدرسى
عربون
متروبوليت
طبري
انسج
بعي
أهان
روسو
تراسل
دينامية
##وؤ
أروى
متعذر
حظى
سارد
##كمان
اقراص
##كه
صحح
زبداني
اعتقادي
أوستن
تخلط
عجاف
آز
يتقرر
ايجاب
محويت
تعليل
يزج
يستخدمونها
مراحي
بكار
لهي
مينسك
تفتخر
Ser
##لكوم
خلفى
جيزاني
ويسكون
##نيان
تمسح
حمم
##لينج
نشاز
سقوف
ايش
وون
لايعرف
هوفنانيان
##تراخت
ووكر
شقيف
مجامع
يصوم
استقصائي
أقدمي
نورمبر
متحاور
سأت
أكباد
يستفز
فيلد
جيريمي
شاوش
أوحى
ألماسي
ضحل
يتلو
أغلف
زيتونقص
حبالقبض
جرين
##اءى
معصم
يتآ
نفعي
طاقي
249
إدواردو
كرايسلر
بزنس
ضآل
##لمل
##جمي
إنقل
تتضافر
بدؤ
ضاوي
##601
تعرق
سكوب
تمازج
يتحصن
هارتس
ميريام
هادر
##ريتش
معقم
تنبت
جائزتين
أذكى
لملم
أحمري
طلاسم
أدرس
انجيلا
صبغي
مكره
##ms
##OR
تشون
سيلان
اولياء
اجار
إعاش
كارم
حوراني
أنزيم
تشاينا
إرادي
مانجو
ساترفيلد
ملعون
##ناس
كروت
نشوي
تتعطل
عذل
الري
كلاي
فليفل
##ارات
بوندسليغا
أنهك
تعويضي
مستهجن
مغسل
بمس
بروب
##كورب
ولائم
سارتر
نجماوي
##شيان
عجال
تقريري
سرفيس
نيد
##اوية
دوسلدورف
إشتراكي
فوع
كمون
##صيبيح
سمستشار
زوجى
##الص
##ورم
##ندة
##تشد
صواعق
تيتو
لساني
هوكس
رفقاء
بوكمال
المصيبيح
موطئ
إعال
خصام
شحوم
عوقب
فلورنسا
متواتر
كواري
يتواجه
دالى
مقذوف
مخاف
إبهام
تايكوان
فرك
ينعش
رهبن
بتروليوم
برلسكونى
مراحيض
نوقف
جهن
سومطر
Intern
إردوغان
زارت
دفيئ
دارك
خلخل
يتعايش
منطاد
##انيد
##فيح
أبطل
ماديسون
233
مستل
##ابال
يقصف
1890
ابوع
مقرح
1435
بوعزيزي
##جيع
ليتواني
حبن
دهب
##رالي
##IP
مربك
تشتكي
يني
نردد
دواخل
مغازل
وعائي
زفتى
مدلج
##علا
##زيغ
اضطلع
مهجن
يدى
تستيقظ
فليبيني
مفاسد
عوادم
بلاتيني
##تاريو
HD
حراب
TV
جفري
##ليانز
احراز
سبن
مشارق
بينالي
يصبر
ثاباتيرو
افريل
بيستونز
Cl
قوقع
يبطل
##جاعي
تخطف
هلوس
زنجبيل
2600
انغماس
اوضاع
be
##xe
مقاطي
لار
وارث
HSBC
حليبي
شوت
واب
تايكواندو
مبال
فضائى
صعيدى
يذوب
يعذب
##فيرون
أينشتاين
لداعش
اعتداد
يلازم
كفري
بورك
حبا
ودر
إيماء
##ميائي
ناصف
جوسبان
اشعاعي
يبدل
بياتي
سباعى
بطرسبرغ
##بيديا
آداء
##تيال
نفضل
244
ميرك
غامق
ويبر
هيثر
تخيف
معانق
آير
##طاش
ريز
بحور
نيوتر
سوخ
231
عبدالستار
##يبا
اماراتي
تنقض
ميجور
تنتظم
Nf
##كسل
يحرج
أفاضل
تلقف
وضوء
خديع
ذائع
أشتون
فيات
مليونى
1898
أباطر
أستغرب
بوعينين
أنذر
نسبى
ارتهان
عياض
إحالت
أتعلم
يداه
بولينغ
احتماء
بطارك
295
نستغل
##OT
اغن
تتوحد
en
ديز
أتناول
روقي
انقذ
جيانغ
احتدم
بارى
مشرب
##اتوف
تلمسان
يثمر
مريس
ابتلي
760
غريق
##ويلى
أحجم
هبى
التمس
معدم
يحوم
يطمع
264
فراول
نحسب
اغذي
مسقاوي
اسعاد
312
اوروبي
دوج
معسر
حمو
ماتم
مشتمل
دراست
نتدخل
انقباض
##لاف
أصقاع
أنساب
ماوي
مقالب
معراج
سوفييت
كوار
##xc
باخوس
إحتفال
سمال
258
حامدي
راني
سيه
ريق
ميع
بروكلين
فابريغاس
هلك
ستزداد
جردي
فلات
إستقواء
مبخوت
خراشي
ترمى
شعاعي
اسمد
جربوع
يعهد
جيوفي
سنتمتر
ممشى
تدريبى
##ائزي
بنائي
##N1
وقار
اسرائيلي
ناموس
وديعة
ادام
اخطار
إليعازر
##نثيان
الاسر
##اريك
إيجاري
تؤلف
هارفرد
أنب
##شيوس
كاتم
كوتش
##التي
يصدم
ويسلي
بنانى
هائج
محلب
بروش
جدعان
رضخ
جيلبرتو
كريت
حناشي
منصرف
ديتليف
موفى
تتآ
اسام
دحيم
##اغان
يحذ
ساندي
تتباين
ريموت
هيو
يتواكب
الكس
##فسكي
يغط
منوب
ينادى
مايد
إسب
تحزن
اجمع
خوليو
##play
تجيء
فرايبورغ
بودولسكي
إدي
ينتفض
ابناؤ
##اطراك
احرار
الاسرائيلى
مناديل
##لفا
اجتن
عفاسي
معبود
مختفي
أنعام
ينصر
أبار
سوال
ويز
تشام
##يللي
##لهف
عصامي
12700
ترتدى
##نجان
عفش
اقتنص
أحيي
##تمار
يشفي
جرذان
كافالي
##وراي
تقيس
##اغوجي
تتنقل
تتكشف
يصادر
أثمن
تنفتح
انفض
مجانى
II
دله
إيلام
ياء
أوروغوياني
تكالب
يفد
آمين
آيرس
تيودور
جفت
غوس
ريتش
مانج
تعمم
بطوط
سرادق
سحابي
أتالانتا
مخافر
أفيال
ليجا
تونغ
رزنام
حليل
منوف
##اكيس
كلمتين
##ايي
مغفل
افساد
تتسارع
ستاندارد
وحى
إنضم
ختامى
ينل
يتوهم
بهتان
عسعوسي
استرشادي
1899
زائل
إنص
طراب
سراء
مصدوم
فيتالي
استذكر
انفال
شدادي
ياد
كنتاكي
أحفوري
كراد
تتعمد
جنيد
أسدل
تتجول
هوليداي
تنهال
تتنا
##وريو
روهين
شماريخ
إضطر
Published
رافي
أشيد
ميليب
لوث
انفق
يمحو
نحاسب
مضاجع
فليح
سيليكون
راصد
##وزني
أوليفي
##طبوط
ابراهام
نيتروجين
مريمي
مذي
##ناؤ
ينبثق
أمانى
288
شماسي
أحيط
اندثر
787
بواردي
اخطر
موفن
مستشري
وقح
خيامي
لينك
مايقارب
اعوج
ميرغنى
تندر
بيبرس
نجومية
تخييم
##اجيل
سعدى
دنيئ
##حيدري
فورلان
ليموزين
نجيفي
##ليوس
241
تشاركية
##ريدى
##ics
تاكيد
طني
243
##ماتية
ماكور
##قياء
هنرى
نخطط
أدخن
تعنيف
سمنود
الحيدري
فيو
ينتحر
أوسيم
405
تلى
عاصمي
فاينانشال
وكي
أخدود
تسايتون
اعتكاف
طرواد
ينبض
هستيري
بروستات
زاهى
فريت
##ستى
استثني
بلقيس
اقترض
كاراك
جغرافى
عذاري
مروء
بنور
ناصي
ارصف
غياث
عبدالحفيظ
Ass
##تننتال
مشكو
غذائ
321
بلى
محشو
مربط
##ition
مرع
سكار
يغن
2800
إدراكي
تملص
يوصى
اوال
##ويسى
تناهز
فيسترف
##يلاك
متاهة
عبدالغفار
موقد
يهاجر
بإمبابة
عقوق
صفد
مستسلم
تشارلوت
دندن
نحاف
يصيح
نزيد
تصميمي
فانل
وعلان
معمم
تقعد
##سية
فنار
دخلاء
إفشاء
##سيكا
قدوس
##ينية
div
تعبث
هنغاريا
##اغا
مدري
سلخ
سرداب
زني
قاو
تؤشر
1301
فضولي
متطفل
##ank
415
اقتلع
يوب
##ميلان
سجود
علايلي
عيتا
اسكندري
سبين
ملق
##اقيت
مقترب
نيفادا
خثر
نجمع
301
إريكسون
تشيكوسلوفاكيا
عبدالب
أغير
اعتياد
أخفى
##ضباطي
صيرور
استعلاء
جزايرس
##بيو
276
##anc
مستشارى
خزامى
ذبذب
حنق
مردودي
ستيفانو
##ويتز
حاييم
اضح
أفخم
حلايب
عرا
##int
سليمي
تجعلك
يحشد
برافو
رجاوي
بذار
آرت
زرقا
ردادي
أضفى
وبحوز
غالاكسي
مسلوق
ياما
استواء
تجتاز
سلماوى
احصاء
##سيليم
ارتسم
ثيو
ارجنتين
##ier
نحسن
ابقاء
ينكس
خلاط
off
دوير
فولكلور
تحبط
تحشد
بلوتونيوم
مؤون
تسهر
نوادر
يبك
روماريو
نخال
انتسب
ايادي
كبارى
أنوف
جملي
أفول
خليك
1897
يفاقم
##mp
##هيم
مغلي
شاين
##ru
ترهق
يستحضر
تختم
محطتين
تشارلتون
أوهم
شيا
جميلي
حساء
سبورتس
براهمي
فقار
بوخوم
شلف
##US
رثائي
فش
##زوع
##بدد
رسو
يوشك
مسحوب
منهالي
اسكتلندي
مجلي
لايقل
##انوف
متخاص
يتذوق
##سترز
أحراج
أنوي
عراد
ستام
جونزال
ياح
##ظي
تألم
خزيم
##DA
إبهار
امتحاني
إحتجاج
##sc
نواد
قنبر
محاليل
##زمير
انشائي
ومع
نحيف
فيكتوري
بسيوني
حشاد
أفاعي
نسعد
ردح
غرافي
انكسر
يغان
جشي
##ده
فيري
استاذ
مكابح
كاير
##وياما
مسخر
تشور
302
متعالي
داكار
صقعبي
عليوي
مهلهل
خيرالله
فوسفور
فيبر
##جارو
مديني
بديوي
مالد
##ودة
بلعباس
يأسف
251
تعاط
تراس
ايز
##شية
أذني
ذكى
رحى
##كامير
##old
قرداح
بورتوري
اوش
##هيمي
سندان
ثع
##جعى
##عرج
إزه
جفون
غيد
يدبر
يوغا
##أمير
تستسلم
فيرس
نرت
بيداغوجي
فولي
ديكو
جثتي
إيما
غفيص
##كنسون
تقوقع
لبل
##ورنو
ليبيري
##رينغ
الو
ليح
استشكال
ويسكونسن
تتضرر
ميليباند
احتكر
رقاق
مونبلي
ننشد
تعجيزية
730
##PA
تجذر
احفظ
عجائز
##ستوي
ومر
هيرويين
فجائي
أوغل
##وتيف
اقراض
دمغ
31701
آيز
كولاج
مطافئ
خائب
كاناف
رجوب
Me
فيخ
فنطاس
يخفق
1896
إزهاق
يتي
توشك
تفسيري
ماريون
##ement
انضباطي
جوليو
هامر
بكير
أرانب
بونابر
اولمبياد
##كونن
سوكر
أوكلاند
سحيب
عديلي
##حلال
1514
##tag
مبهج
أشق
قناوي
جنيبي
اسراء
يختزل
شاكيرا
ينق
ينفد
ادائ
شمام
960
تتهيأ
لوق
هجان
##غيا
كومباني
رادوي
يلج
متشنج
الريماوي
دعى
يجزي
جهنمي
##زوني
##غض
##اليت
ضفادع
دويتو
##سبورت
740
قديح
قما
##اتنا
ميكرو
قبائلي
تفريخ
قتاد
متقابل
فسط
مسيري
##اديا
إدفو
##فنن
ألس
##vel
ne
معيق
تسعمائ
##ليموس
أخصائى
قوز
أزبكي
##اخذ
أباتي
حدق
يغمر
تنسج
##وريس
ممس
بمو
زكام
##فاؤ
##ضد
حوطي
برتوكول
لقم
##ous
فارع
سونج
تجوز
##ee
##كتاش
فنت
ديفيز
لوكر
اجاد
تستنزف
أمصال
سندي
ابتذال
##فيان
حيو
حناكي
نبتعد
خريص
فيلدرز
##منى
فريقى
##بلاوى
ايما
غيفارا
لايس
كلوى
##TE
مجاهر
تحصر
إذاب
عبيدالله
##ount
إى
معلمى
المسيليم
ابدا
اوقاف
هتان
أسيل
##واين
جعيثن
كونكاك
نصبو
منزلى
معذر
أرحام
نعقد
متبوع
اقتنائ
google
##اطم
فاج
ايوبي
رولز
تختزن
شفاينشتاي
زوري
تتحد
نيزك
أتعامل
لاو
يستنتج
خلوق
مستنسخ
MS
جرش
إزاى
قعر
كفي
أدميرال
فستق
معكرون
بيرلو
دبك
نضوب
أيسلندا
صلع
وبحوزتهما
##لن
تموضع
##ثيا
عبدالهادى
كونكاكاف
تحادث
يتذمر
يضحي
2100
##كدس
يحتشد
منتصب
3200
المنستيري
خبط
الشر
جاوز
دليم
فخراني
ليبانون
اورب
بيومي
باذنجان
جوميز
أراح
307
خديوي
معقب
أحصن
نتلقى
فيتم
مشائخ
أبذل
يسحق
مشهر
تصيد
تستلم
##مسين
فرقان
##دوخ
نقترب
ادماج
والت
##وفوبيا
درة
اميركان
امتهن
##ليتكو
##لكس
ترتسم
##ism
##وفت
جنو
كميت
قابيل
سوفيتى
باو
مغاغ
كونفيد
عكاز
حيض
كليمن
حطيط
اجساد
يمكنك
##انسكي
مناسبتين
دغي
##yl
خييلي
313
875
##انبي
اخري
##تيكا
اكثري
نيوجيرزي
داما
تعلي
أبكي
إعفائ
##كسد
259
780
خشم
شلا
ماش
##اجة
##شيه
تكتسي
غف
مكوكي
##كاتو
سديس
عنخ
هيهات
جنيني
يداعب
آرامي
الببلاوى
أتد
##بشر
يأبه
دسوقي
##وبولوس
##رن
قويس
ديدن
اصدقائ
##ائقى
##وفين
مضطرد
طى
وادعي
أمطر
يؤرخ
جوارب
لايست
موفنبيك
حوا
أبوالع
ساعدي
معنوى
تشتهي
##انز
إسهاب
شريدة
شاختار
معطر
309
يبصر
إنتصار
تنصف
اعراض
تخثر
أسبرين
ننفذ
مريء
ليمفاوي
اوجل
سادي
هائم
يحفل
اسلم
أخى
تخيم
سايكس
اوعي
إقطاع
كيران
تسكت
تبخل
تحتج
هويت
مناصح
##تسل
##بتني
ثعالب
نتص
هرنانديز
شبيلي
مؤدب
بيا
تمرس
##اتج
كومى
475
اشكناني
##سطويسى
جماجم
فهني
هوبكنز
##لله
##نيو
خايف
سيان
هوار
قريشي
هودج
طوخ
##af
رهيف
روكتس
قتلو
ارتأى
##بيلية
جهينة
زارى
كاديلاك
البسطويسى
ماتياس
##غاد
1889
إخلائ
إيفوارى
إرفاق
ماوري
خنوع
بولينج
اوكر
متحيز
مينغ
دبب
##ica
##نهارد
احزاب
##اونة
أتحمل
يتلاشى
تسوير
اذهب
مهيئ
يمتهن
سوناطراك
303
شعراني
286
لايستطيع
أتوبيسات
سلافي
يرغم
جنيدي
لثام
##ونتي
درجتين
منعش
بغضاء
يتفضل
تتصارع
بجريد
KAS290
فيرمونت
تقليم
مقسوم
تتحرر
ينساب
زري
صلف
##زيتش
أفئد
هانوي
##يرانو
غيتار
صوابي
منزلق
متصور
بنجامين
فهنيئا
أولاند
إستع
شيفيلد
ظهري
ماغن
يجف
سخان
زنازين
مواع
لاوعي
زنكي
أتهم
تارا
##ium
ينحاز
اعضاء
يستتبع
يثر
##افية
ارباب
كانافارو
بونابرت
توراتي
إستعداد
استفراد
يغوص
تشريك
دحيلان
##كاميرونى
دلب
نجو
يوروم
تتنفس
تتحلى
نيكاراغ
منفصلتين
مونبلييه
غيرهارد
طالبو
نتيف
جينيس
إنصات
AC
وساد
بوكسينغ
انشطار
##BS
ميقات
شملان
جيرالد
ولغ
##ung
##الوريا
شره
عمليتي
تخدع
يعدم
نطمئن
انابوليس
بنفسج
ميتال
دامس
رواس
نراهم
محجر
نهاية
تزعزع
سريالي
رياشي
يتعثر
هايبر
اغراض
زاي
منيل
داكوتا
محتم
شمص
display
منفا
تجف
يسدل
يخيب
تتعثر
انجاح
قنوات
355
345
مساكني
رفي
متنكر
باكس
ننعم
يسعني
مجازا
هيثرو
شكور
متعرج
نفرض
هيمان
##que
تعرج
أدغال
متعطل
زاكي
سه
مغولي
كيكي
262
مناشير
##تول
ناشف
##لز
بورس
يتبو
وثوق
تشارتر
اختباري
ex
تعلب
تتعاقد
حظو
##تيسي
يحض
تبصير
محبى
مظنون
لوكربي
820
سبكى
توسك
استيقاف
تاثير
ينتقم
رادس
متناسين
فيسنتي
يدون
برازيليا
عريني
فيسترفيله
ماينز
##غلي
متوفا
فنرب
##عمئة
أحشاء
يخيل
جنبي
يجرح
12500
عاقد
تحوز
رضائي
عندليب
نياز
يستغني
نمثل
مناح
هاته
استوح
ملاي
تبرأ
ارتكبو
انترنيت
محكومي
تغليظ
زخرفي
LBC
يرثى
لومبار
إتاو
محكي
525
تصحح
تمزج
شعانبي
يستريح
سنست
##شاري
تسعف
تفاض
يغب
مدارج
268
حفظى
فطيم
##وبس
##حية
بيتس
##فاست
تشك
كرنك
##ناندو
مجدليون
590
دويك
جدري
منصوب
نفرق
860
موتورولا
صوفى
عاتب
جوبر
تتوغل
يلا
نتجاهل
##هلاك
يثري
فوي
##ome
مجيدي
تأنيث
رستن
كوا
##ونيز
اكتفي
الغاء
##هس
تعاهد
أمازيغ
##أهل
انكر
انعتاق
نفيدكم
ظفير
تعمي
أحدب
زرعوني
إسنا
اكثار
سمالوط
أرتو
##اشين
برمائي
##عيمي
كرار
فضائ
كنفاني
قلقيلي
ماكار
هامور
هيدروجيني
##يرك
منغص
بسيس
بادن
##وضح
كبيرتين
مطبوخ
انجذاب
##cc
مشترى
يتنا
تغسل
باث
ذعار
فايق
تغاضى
فاقوس
هاملتون
مزاين
صيعري
يحتكر
حوراء
محافظتى
عزيزى
برجس
حذائ
مغلوث
Med
##ادول
##برأ
خراسان
278
مآس
نولاند
فولكسف
تجسيم
ترسو
يقص
ساعتين
267
يظ
1850
##غيت
ناظ
اخوي
إياك
جماي
263
اصحاب
فتق
أوح
تتولا
يروق
حاكمي
تنظيمى
اضرب
940
296
تحكى
دخن
انسان
زينى
يشرفني
نقبي
مالطي
اكتب
خامل
داون
جزيء
فيلكا
بعقلين
سلتيكس
أغاسي
غياهب
طرفى
كالو
سببي
يوقظ
ادرج
دلهي
##يبان
يستطرد
جيزاوى
اكسب
اختفت
ازياء
مقري
318
استثنائى
DNA
اوه
مواقيت
اجمل
أدافع
يعتلي
ارشيف
متراص
##بردج
سنديان
##شافت
لوتس
كينغز
##Top
حفناوى
ريدة
ايدز
يسترجع
اديس
أنجيل
تعفن
دفئ
يوكل
استحضر
شمندر
تراجم
فقام
يخلع
يتصارع
جيسيكا
اجمالى
مهور
283
يجدو
بجاية
رهامى
مجارى
قيء
يهن
ديناميت
##اليسا
نثمن
كهل
##خوف
هاينز
بيكيه
تلبيس
عبدالحسين
زه
تتسيد
آبه
حيم
يطف
يتوانى
عقلى
1870
شحم
أضاء
##غين
معمع
##اهان
##اديشي
سيهاتي
حاط
ماسوني
صامطة
جوفاء
نرك
الأن
يطالع
##ong
انحدر
كيث
فصاح
هستيريا
جلوبال
أركز
اخص
تصرح
يستل
هانم
متصدع
شعم
شعراوي
نتجه
تفاضلي
يلين
أتخذ
كوكو
انجل
معاجم
تعتز
جياش
فوغ
مسكوت
شليط
موافى
حاذ
نقباء
920
بصق
##عق
##علوم
يحاك
وكلائ
gpt
تفك
أبشر
أستخدم
زناد
googletag
##شوين
غولدستون
or
خمار
منعكس
يونكر
نستورد
اتلاف
متخاذل
يفحص
شيكولات
##انف
هياج
##stem
تشريحي
اكيد
شيري
##خو
يعجل
سلتا
##عوسي
سندباد
خوجلي
الط
تمطر
يوفي
##فقار
نرصد
يخرق
ديكار
##ليتيكو
براري
تفويج
نتوء
بديعة
تشيز
إلكترونى
ضراء
ماكو
تفاريس
تخزن
ألفريد
أستمر
مواشى
تطليق
جاثم
ذاب
نومي
فيجي
نوفق
بخت
##احين
أميركيتين
##فتان
##حار
سيدتين
ميساء
داتا
صاع
يتقلص
يجان
كاره
تايبيه
استهجن
يطيق
مدارك
##لها
مكدس
يشاطر
كنب
أحسائي
أويحيى
فرائض
جبهتين
##الة
ماريان
اللاذ
قزاز
##خبر
مناكف
تهليل
إغن
840
تلتقى
أنجي
انصح
براذ
نضرب
سائغ
الشيوعى
نطلع
##نوت
تسويد
World
مستلم
بريما
رسالتنا
فإننى
مشجعى
شرياني
زامبي
بيوع
أبوج
نطور
إيسلندا
صوان
مداور
نورماندي
أنار
1880
مصلحي
##غيلا
باسيفيك
##خيس
ريكي
كنعاني
ضيدان
غفو
رحيق
أنصف
تطهر
نشا
اسطنبول
أشوف
انتهاز
عزازى
خريجي
شواذ
شامبو
يسجن
صفى
صلبي
284
افران
تجرع
ترج
نرجس
امبراطور
شائب
انتج
نتك
عزو
موسوم
مبلل
##ae
محتفل
##اهرى
مكنن
ويكيبيديا
جيفر
هياء
مفح
##دانوف
عبيكان
هلب
يفوض
كنه
ضغين
سيلتقى
##لندى
يتلمس
امرأتان
1895
أنخيل
حسوم
##ريجاس
اشياء
رونى
ينضب
بلوري
##ريمان
كيمائي
تريل
جامعتي
انسول
غلين
لطم
انعدم
عبدالغفور
##ظفار
فوستر
747
يرضخ
داهي
واستشار
عيف
شرابي
اعفاء
متصوف
أجعل
جهار
1882
حلاوى
##au
ماكري
تفاضل
319
أكتر
##ازاكي
نيوجيرسي
ميرتس
متساقط
بنديكتوس
كاه
يعش
يهتز
314
ابتداع
Wh
كسول
يتغيب
صهيون
مستعان
##قاة
دجيل
حريملاء
عشش
تتعالى
تنشغل
امعاء
282
وخيم
محلق
جرمان
بومرد
مراسى
تساو
إيتار
يزايد
يونيون
الظو
تعتري
عزاوي
حبسي
الظواهرى
يتتبع
##ans
##IM
تقبع
##ازف
ريتز
##غتون
أكاليل
اثرياء
مايم
أعتى
تدفن
أعرج
ماجن
إباح
غريزي
واستشاراتكم
هيغل
أبوق
ساحلى
جليلي
ناضر
اعرب
أعقد
أغا
افصاح
يقتحمون
مفضي
شينجي
BA
Is
تابت
غليل
روبى
بومرداس
البل
أسيا
KAS28
تسيد
احاول
274
كونفيدرالي
##ix
غروزني
يصوب
تنعدم
##اركو
543
زوجتى
رودولف
تموج
ميتشيل
كفؤ
مابعد
##شيو
##ons
السنعوسي
فدا
##يشن
تلطي
تأنيب
محج
يرس
طولى
لمد
##حك
##ولوج
أشبيلية
##roup
شواء
بندري
يتداخل
##ations
إغتيال
نكشف
تاو
أمعن
مستقاة
انطواء
مزدلفة
يتقيد
##طس
دوغان
يرهق
حققوه
سامري
Comp
مسحل
##ولوجية
شاعرية
هوفمان
نشد
كونسور
يهجر
هارفي
##ram
اجيال
شقى
##مة
لورن
سيتر
خزر
يخبئ
انتي
تتعب
نشوف
##زرع
يضايق
انسى
هجرس
أقفاص
فيغ
سيموني
يحترف
1419
ميرى
مندور
فاضي
تصون
نواتج
قدرى
##بارة
باتريس
هاجرى
تصادق
نكاد
##ودراما
يتقاطع
معق
أمشي
استلزم
أباتشي
بريماكوف
##خس
اصح
تناضل
استجداء
اتكلم
تجييش
##انتيس
يسمو
بولا
316
سبيك
عتر
إسماعيلى
متشر
ملس
إيثان
مولن
متجاهلا
يستثني
دفق
يكافئ
تهدى
سواتر
##خيم
سيقان
لمفاوي
##وهما
اصفهان
أبوري
سرار
بيريرا
يونيفر
روديك
هاكرز
يسىء
مستخدمى
##فلوط
##وشى
دنس
تريبيون
تربك
يثقل
يتبادلون
عبدالغنى
موبوء
كبائن
راشيل
غاغ
فاغ
ينسف
أخاذ
ميوزي
افتراق
ريجينا
أبصر
اجباري
جذو
ديرك
جوزاء
فابريجاس
فاكر
##لع
##نص
اطب
ابدع
أمتين
أجير
##نيط
بريطانى
إبراشى
Ed
بستر
##تفورد
يشوف
299
sh
يواكيم
ننتهي
ارفع
##وكر
الغرب
إبليس
مغرور
##اعث
##ترانيك
شروخ
أمرك
بورد
طواحين
##لائ
أبدان
شدائد
عوان
ابوال
باراجواي
زاني
الزى
اتصالي
عاصى
جزع
رقعي
تتحفظ
Car
طوسون
نافر
بريش
غيبي
##اديب
جرمي
##صص
تتخبط
أشكن
كراكاس
وتيل
ويليامس
استعدادي
كهول
سوزا
سانتياجو
تعجيزي
##تفر
##افيل
حرش
يسطر
##اردز
281
عاطى
كاريكاتيري
##نهارده
آيب
##شام
مشمس
أكفأ
تطوان
تهريج
##فاقس
بقول
استأذن
تمضى
أراء
##نبه
##ann
##icro
كينون
زوق
فيتز
غرو
مفتشى
النهارده
كريمي
شيرازي
##ايكوس
نيكاراغوا
Web
قواد
يساوى
مايت
324
تتخوف
تجهل
يتبوأ
Pl
مراغ
جيجا
أقفال
ينغ
322
##عين
تبرهن
قمزي
تتعزز
كورتيزون
كافالييرز
إنييستا
نبلغ
بيغن
##ؤمن
حالت
يشل
مراقبو
متوعد
جيتسو
فسا
تهلك
364
880
ينفتح
دكوان
تناسى
نصراني
زول
تتلف
دوسرى
##هلية
ميتافيزيقي
نضر
نظامى
حصير
إستراتيجى
تثور
انقرض
بيال
1830
يقيل
##يراس
بتل
أجاويد
كولينز
ألكتر
اعطا
إرهاص
بوليفار
اضمحلال
##شاش
بوحمد
يحجم
أضطر
إزمير
معجن
##اصفاقس
حقلي
دواب
تصعيداصفاقس
حاسد
أطلن
بواعث
انتمى
AT
زيرى
مقاصف
يطعم
261
تذاع
املاك
يخلي
##زرز
أبوالعلا
مباراتين
عطالله
الج
نتخلص
بلطجى
سقاف
تتربع
جيدو
##اريم
نهارد
املاء
بعريني
أفتح
كونستان
اسقط
نبوغ
مرتجل
ميركاتو
426
لاتت
ايمي
رجيم
يخر
انكب
علان
اشكر
ستال
كلاشينكوف
##ward
حكواتي
323
ميتش
اشرك
استدل
عكاري
بياع
298
تانجو
رمثا
فيرا
ليبرت
عنابر
ارشيد
مذعور
انفك
تتشارك
عويدات
عوني
أعطاني
بغض
حياتو
بوليمر
ماجري
أتمت
يبط
اجواء
نانسى
زبدة
عروي
احضر
ينتفع
اقدم
تربوى
تتقاضى
صغائر
##ازو
يتفاقم
جاموس
وتش
تقتنع
قوافي
كارديف
اضخم
شحاته
شلتوت
تقليب
فينبغي
مليجى
اختزل
سافي
مربى
نوفي
أبيي
جذوع
وريدي
يتضامن
يتلف
ينط
تضاد
سيرى
فقرى
كونداليسا
كسي
منو
شنب
غراي
مستثمرى
شناوي
هزل
اعتم
نستبعد
فيديرير
ارتق
اغاث
أخد
كرمل
استسهال
ترافورد
فيتع
جيتار
292
337
فكت
يوي
##أو
##ظع
فيز
404
تقييس
##de
احلى
إيديولوجيا
sp
أغادير
##اباما
صنائع
271
نحال
قناديل
مسلمى
مانشافت
##فخ
متذوق
طلخا
277
قحطانى
أتردد
غلاسكو
ذبائح
فاصوليا
تشارلي
336
ساسين
ايلينا
باوز
عديس
احزان
تبجيل
يعطيك
تبدى
12600
لوجيستي
بورا
نبين
يغرد
##غنط
عبدالمطلب
حشمت
##جوع
رصان
12900
خدود
##ولة
سبنسر
ترات
كروات
يستخلص
شوبكى
نحيي
أفتى
كورن
الإثيوبى
أكتشف
فيلبس
أملي
##زلاند
أعطو
حوصر
ورلد
911
تزفيت
كمبودي
مشتل
يمتلئ
تطعن
##لينز
يتساقط
أنطاليا
أقماح
سميط
قرصان
ماتشالا
يعمر
أبالغ
مهادن
غرفتين
يتنبه
سيستمز
ملذ
عدلا
شعرى
##طاب
أسماع
شعف
طفاي
لترامب
مداوا
هاند
يئن
##ual
نجوع
يلوذ
انتحارى
باخشوين
0505
سحيباني
تسترد
بولند
جوعان
خلدة
تتناقل
خواء
فاري
الكاميرونى
مسحي
حقير
تلاشى
435
هاهو
متفتح
آح
لوكي
326
اظهر
تتوانى
اسرار
##فاخر
فالديز
استغراق
تنزف
1881
إنفجار
وخمسين
شراح
أصنع
حصرى
المنيوم
##ايري
برجي
دايل
مغص
بغدادى
طواري
ساخط
Co
جنوى
رامبو
##سق
##رينى
تحفر
كلوريد
علاجى
كورينثيان
عبدالرسول
رابت
##انيل
تنكشف
جميح
تتهدد
بست
زغب
تعميد
صيدلى
مهدا
مليمتر
##اجى
مشاتل
هنوف
##اخي
##الذي
تشيلى
اشتقاق
زوك
هالي
تنبض
يوتوب
##يرت
دراجي
تتدهور
زلق
يئس
##تيبي
مهدور
طنيجي
Nc
##SA
##وموتيف
##قصود
يتغذى
مواعظ
بدنى
متذيل
304
ستيفنز
أصباغ
عنج
فوقا
يوليا
عابئ
حراء
ماون
##هدل
تشوم
أجهض
تفخي
اشواق
مالدي
طيش
تهيب
##وهن
جديع
يلهث
ترقد
يزر
هنغاري
فيريرا
##جوم
327
ثلثى
اثيوبي
بريتوريا
مدو
يدهش
يرزح
ابواب
DV
##اران
تبيح
الدق
##اجان
تنتبه
عدى
هديب
مغيزل
إصابتين
متشبث
أخوض
اخطأ
لانغ
فارابي
هيرمس
خوادم
باختاكور
مقاسم
رياق
تداوي
تدلل
تنتزع
موسوعي
حواسب
328
سافين
شوا
أوكسفورد
خث
أميمة
تجرم
عسي
سنى
##ثيوم
شوير
متخم
مصائد
حفنى
مكناس
الدقهلية
403
دكاكين
يمشى
اندبندنت
نخر
تسنح
مرحلتي
اصفر
مويزري
سبارت
امه
سقطرى
خرينج
##land
##وطى
293
الكتر
ايحاء
جحر
##كثر
##اردي
استكان
يتحدر
هيجان
3300
ليفاند
مبكي
أفلح
بكفيا
اختبأ
اقدر
ذهل
##طخ
تبشيري
408
تيجان
غباش
خبري
عنقود
بارون
##ows
خفاق
جوسيب
طومسون
Bla
عربيد
مطلي
جواهري
زعمائ
مختلق
ايفو
شخصيتي
فيرناندو
منثور
##ليش
زئيف
##اقة
روسيف
ليتشي
كومبارس
ربيش
تظهير
##ys
متخفي
موريشيوس
هواوي
انقضى
تفخيخ
يرعا
أوغست
أصالة
##لند
بديه
نستثمر
أيدلوجي
نكاي
عاث
متحفز
مسافي
نهال
اراح
دماؤ
ظمأ
فينوغراد
طرابزون
بتس
خطار
##يريو
289
##نها
رايكونن
اطمئن
غوستاف
متزمت
395
512
ميثاقي
سبورتنج
أيل
استخلص
يستحسن
نورمبرغ
ارني
سرج
خرز
أنثروبولوجيا
1412
أستمع
ميلودى
##ink
أوكسيد
بجريدتكم
إمتاع
شدو
فارك
عمالى
أراج
##اثين
أسرا
بوشي
386
بربير
راغ
##ris
تجلط
اشبال
باتو
يشابه
294
##ذور
محمر
أعتز
احجام
نجهل
عبس
ارتكز
مرتهن
استنجد
حنبعل
مداوم
يفغيني
استكبار
##ale
تخرق
##وميم
تسا
ارن
إبراء
279
تومسون
نتحاور
مرواني
عبدالمقصود
فيؤكد
وسى
يردون
##باتشوف
انتحل
ريجن
يفطر
مارات
إنتظار
دقق
كاشي
ينظف
انكمش
يتنحى
لاتوجد
نوباري
تتزعم
موبي
سبيس
جحود
اوط
يتشرف
##وليتان
ديمير
اسيل
لفتنانت
نعمت
اعوجاج
اصب
مختتم
اعتباطي
مسحر
تصبو
إستفاد
كورك
وتري
ملؤ
جاسكو
أنات
##ينوس
##ودية
إيجي
اوفي
مشنق
ألأ
##aw
جاءني
أصنام
ضير
ينأى
سلوب
إللى
فقم
رابيد
690
ارتياب
##ليفي
انوف
ستول
رعش
بيرلس
مياد
##شيخ
يبول
زعزوع
ساندرز
والاس
أندرياس
يراقبون
##يدون
يعسكر
حنبل
يتفرج
شتيم
عشماوى
أرجائ
يعمم
سنين
نفسر
##ليزيه
##وفرست
فأعتقد
ووتر
##ep
##بائ
اتمان
تكديس
قحيص
ميمن
مركون
##برغر
إخت
مضيء
##نسون
فاندر
##ors
انشر
نشكل
يوهم
سيلف
يامن
ينجب
تململ
اجد
تهدث
أنجلو
نستر
كابرال
صاوي
##نكوف
حلزوني
##نتوت
سوفيات
اللاذقية
صودر
برئ
جرن
تستقل
حوائج
505
جليس
حذار
أوتا
عزبى
يذكرني
يوروفرست
287
هاهي
##ينسون
يجهد
ميتر
نعثر
حبايب
أتعب
ييل
##ملر
شرج
تصدم
بحص
أبيك
سامبراس
يوغسلافي
اغراق
##ارتو
كبيسي
ترين
عازر
هيدينك
شفروليه
لحياني
جرافيك
يتحفظ
مجمعه
ماكورماك
كحيل
حدثني
مستجيب
نيام
سواليف
موتي
مكاوى
سدني
كابري
افض
يكل
يصافح
إيسيسكو
خونة
ينكشف
انذار
ممات
أريان
يدي
الخ
درم
قرنفل
صايل
متبق
اعز
1848
يتغنى
موحش
بلل
أقلق
حبوش
أرتوازي
معايا
##يسر
توازى
طردي
نشت
ينتقص
##ومى
##يمى
ريوس
شاهدو
باسند
بقعاء
فتل
البح
مشاق
جمهر
##جيلى
تشح
بعثر
أهون
دغدغ
أسوياء
##كيش
افتعل
حنظل
كابيلو
اسكندنافي
رودريغو
اركان
مناحى
بيبر
فنسنت
269
اتم
وصلتني
حوران
يستمتعون
أبخازيا
بوتسوانا
##خاري
نحفظ
اعني
روكس
واكد
انزيم
أعتمد
بطني
نزرع
شيفروليه
اسماعيلية
##شاسا
##انك
ولايتين
مسلماني
شتان
ضعو
أيما
مكائد
يغض
قائ
تمدن
أخرس
بلادى
ثلاسيميا
بخاخ
سوخوي
دحام
يستأجر
نتمتع
ارو
##ومتوسطي
آيار
كأ
مطحن
إنتقال
##بالي
ينوه
تشفع
تلتف
يتكامل
شلومو
جمايكي
يتوحد
1885
استيفائ
مفه
تتواكب
كيرلس
اقرأ
يتباهى
تنعش
##سيكل
حجام
فرنج
تيت
انتركونتيننتال
يهو
أنمي
يتفرع
لبت
تشل
ملمس
##ata
حويطي
ابتلاء
ميرنا
أدني
يؤجج
ريجيم
حامول
بجع
مرتين
بوتي
##تجف
إنته
##صو
رقمى
باريبا
غارانغ
كرويف
يركن
ينير
يقعد
##كانو
خزعل
نعتذر
##oo
الزام
حضرمي
فارو
مزمار
أشرس
أتفهم
لC
##اروفا
أنو
يشخص
نورالدين
نتراجع
يبتكر
شينزو
زنتان
##ينات
ماه
مجهد
منجلي
##FA
##بتنا
صراط
الباك
##قلي
تصمم
##شنر
فيعتبر
لاغارد
مريسة
واش
تتخل
جرماني
رحا
أرسم
متعاظم
مسامح
احفاد
أثلج
ناني
ترددي
كافتيريا
نجدت
عليق
يقيني
غرر
غرون
مدراس
كولوني
جمركى
##افيت
متحصن
يخترع
332
راشدي
راوح
##يريش
همش
صحار
يتحاور
يتنبأ
ائتمانى
##ادة
##ربى
مقهوي
تشوش
رموش
يحم
أورم
ميدلس
فدوى
دعوني
استلاب
Gl
شاد
##توري
جنائزي
يحدق
آخ
غاص
يطفئ
##ونيان
##تينج
مارش
ابوي
هرموش
297
دسائس
سسكا
ترس
كافل
بتراء
##وسيان
يشتت
##oll
عليوان
التأم
روفرز
لازال
ترومان
يدقق
نايمكس
امساك
فقع
كباب
مندرج
أوكينا
1418
عدرا
##1N1
عدمي
وتن
تأليب
جولدن
فيلانوفا
صقار
رمانة
الكرب
شاطىء
##صت
اتساءل
قواميس
اطل
ابوبكر
334
باتيستا
فهن
تأسيسى
غلوبال
اذكر
قشع
##BM
حيطان
##تحمل
تستفز
اسهال
متأرجح
##خاني
نظرتنا
يتسلح
455
كبائر
##شواى
تعاف
صفتى
عياذ
تحفظي
عسلي
ومسئولى
مويه
اتكال
جيفرسون
##نار
دياكي
يسابق
اعلاني
بلومبرغ
باترسون
نضيع
أنسي
##ونوف
##اتح
##ليقة
فلاتر
منعا
تمت
رياء
أقزام
بريس
##اغرا
##يرتس
291
متشكك
قدساويين
ناغتس
##ائهم
هلامي
##مانا
خذلان
خما
قتيب
سكايب
1414
منتجى
مازيمبي
ياور
فانتازيا
ماريلاند
رفائيل
إحترام
أوكيناوا
تفوه
نيت
##اخيم
##ماية
وفائ
نتصرف
جيجابايت
بوكوفا
تفريع
تبويب
اشتياق
استجرار
ألفونسو
اشباع
انفست
اتقدم
بداه
بانورامي
يوهانسون
راخوي
إنقلاب
Tw
استم
منتخبى
كيودو
سريح
جيور
354
متفحم
دلافين
##اديف
##قلد
بطئ
تستأثر
مسباح
برزان
إستوكهولم
جحافل
تألو
أخوان
تنزاني
##ينهو
تآزر
##شارك
إيكونومي
فريزر
قاووق
بكنباور
عوفر
##وئي
يتحالف
بيرغ
انبث
نساهم
##rit
نيوه
استعجل
رايو
بيولوجيا
اطروح
قوصي
أغادر
خزفي
مدفعجي
باتيست
مشف
أقوام
نمري
##يانغ
دائرتين
أزعم
367
كولومبو
##ree
سيمنز
830
##لوك
اصطلح
غامبيا
تلبى
برايل
مخملي
تتضاءل
اخير
انفاذ
خيخون
عطوان
0800
أوكام
مغاسل
اسوشي
##جلب
##هلل
احبب
أواجه
زيغ
تغب
406
بليكس
ناع
##ric
##les
مرضع
##شرز
أثني
حناوي
شلح
غاس
أحزن
جينتاو
أمزج
يطوي
ننهي
اكراه
الكربوهيدرات
تحصيلي
##ودري
تخنق
باناس
دنقل
تريكي
فيدرين
شفير
غطي
حريف
تشوركين
تواص
علييف
ارجو
جيا
سنيد
ينسج
##ame
فيديري
توطئ
##ديداس
تسلب
دعاني
زملك
ديروط
فاه
مصون
جويهل
منسوبو
تلتئم
شائن
##روس
يرزة
صنم
يزو
347
يجتذب
ضروس
##نبورت
خناجر
ميدوز
باييس
خربوش
لوريان
قثامي
بمواجه
كوع
لابس
جراحى
نتبادل
مبطل
يحبس
اجري
يؤمل
ابنائي
##ودين
ارتدي
فورسي
نستنكر
AS
تايسون
رت
##كلى
مهيدب
تستهوي
ننتبه
مسعور
لورنزو
تندم
سيامي
وجل
روابي
كفاف
زنى
بجادي
الفلس
أوفى
تسرد
استدعا
710
طوباوي
إزد
يمتثل
حاث
يحصن
اهاب
إستقبال
أضحك
##ild
كوينزلاند
استمات
##ايبي
فيلت
هارولد
لايعني
كوماندوس
قويز
هامس
فورس
تلب
ثيم
##set
ممغنط
وفض
نسمي
كلمتي
اقتراف
تنأى
##ريدا
اشد
حنش
##خيو
آسن
إيوان
##فتا
متمادي
1861
شجاعي
##rk
ملغا
يشب
امو
تزح
حصا
حفي
رائي
##ناب
تحرس
الباكالوريا
شراه
يصمم
متطاير
شحاذ
زفير
تباشير
تغرير
غزيل
عشقي
تدمج
ليفورنو
##زاج
معفا
تنورين
##لاخ
قيثار
بندق
جواء
تفتش
مقدمى
ذليل
وشح
منهل
##سترونغ
ابيه
وعور
متضخم
بورتوريكو
شغر
باريرا
مفهومي
##ex
مناوى
تفاءل
تزحف
بوذا
يغامر
311
515
خواجي
فيجو
أسافر
طلاس
عمومى
تشابي
يلعن
عزر
يورث
رافعي
مقصيد
KAS600
نتنازل
Des
Google
جايسون
##فضيل
##ينغتون
اجسام
غوته
اميلي
دغر
هبت
##غدا
متمد
##ربير
نفود
كريغ
مورتر
نابغ
يتشابه
وعيل
يكيل
تلوم
قلوي
قذاف
معاطى
##ستيك
يتصد
قرنى
اوصل
ينبت
عملياتي
دوقي
رومانو
آين
ليني
ليتل
ليثيوم
بابوى
كامكو
انهزام
ينفض
مؤدا
يهون
كورس
هوبر
نعانى
عزى
يتحسس
نستمتع
غريس
فاست
فراخ
استئناس
عنجهي
بلازي
نحتفظ
اسراف
غازبروم
وارطان
شاح
أموات
يحاولان
ماتادور
بهلول
App
ضوي
احصل
##جيس
##سرز
أشرح
مآزق
تهر
##هاز
أكذوب
ازاح
فرمان
برانس
ألد
##ina
يشتعل
فيشاوي
مورين
أوست
تمتزج
سبانخ
كارا
أرحم
يواخيم
##وشيه
جالاكسي
تخبئ
الخد
معص
مسو
تحرج
ولش
نتجنب
منظمى
جوا
الخدماتية
يريف
##erm
باناسونيك
##نيخ
اراضى
يغزو
##ivers
إرضاع
اعمل
حسيم
##اخير
افترش
ديباج
اكسبرس
هابل
زروال
1871
فاينانشيال
جعد
سوط
مقدام
أيادى
تكبيل
حبيبى
استيلائ
شاهي
اسوار
تيبت
##ضية
هيتس
مطمور
يسامح
ينبذ
مرصوص
اسياح
مايسمى
منجد
343
جرادي
نتطرق
إفتتاح
مناق
يتورع
تتولد
ملىء
ينضج
موصى
384
جورجيو
كابيلا
غمام
كيربي
مازدا
قنين
رجولي
سينوغرافيا
نرسم
تقترن
جميز
##ذلل
يبرئ
صويغ
تجريبى
ايريك
غفيلي
مصاهر
خردل
ضواحى
إيكو
نعمي
توليفة
يعتصمون
حسا
##ديرا
تتسلل
جوست
ألصق
حميري
دايملر
احتراز
معلمو
##يسيبي
تبعثر
##out
##نيتش
تبسط
نشاب
نيوزلندا
تشارترد
افقي
346
خيش
أونتاريو
010
مفتتح
إنهاك
اتمام
تفطن
ألبر
ألتقي
قبيات
ليفاندوفسكي
اخضر
الرومانى
دولتي
يلتئم
لونج
##ينت
##جرام
اذان
352
عطو
لCNN
اوقف
بيكنباور
##وتنا
ولفر
930
##هوري
1892
رنتيسي
صوص
##قياد
##طيا
طرابي
504
465
يتطاول
يربي
جواو
اشجار
1350
متدن
خثران
داكس
مقزز
هنريك
عجيري
يستعملون
بما
راقد
##ينيون
سنوكر
نعارض
أوتاوا
Tra
لطيم
وشي
يكتسح
cl
يحيد
ملام
مائير
تتألق
##اثينايكوس
FM
تجرح
مهازل
عضوى
382
وله
نشرب
357
##خاندرو
معم
دموى
ارتجاع
et
عرن
تمحو
##ظروف
مشترا
يعفى
تلمح
داج
شهم
يعر
ستس
أردتم
هرطق
مكناسي
قتيبة
يعشن
ملاط
تغن
دمتم
##ins
غولدمان
سوالف
##انكي
سندري
يرن
نبتون
انجب
مسلكي
كانساس
ديور
فيرونا
خويطر
بيوض
تؤرخ
تحدق
##تيمور
ماتيوس
ياع
برناوي
امرئ
سكرية
اخطائ
بطليموس
بوركين
ساعدني
صنيتان
عنتري
اقتيد
كولر
دلوقتى
AD
حلا
عرار
كرخ
شبور
ألاباما
لغو
أفرح
أوزار
سباع
استراتيجيتنا
مذياع
##خفاض
تعش
تقييمي
حرارى
487
ارثوذكسي
فمي
زبادي
كلك
انتماؤ
أحترق
بوجي
لأكون
عويران
##ذه
متسم
ديمون
ليفين
براذرز
أبوريدة
سونيا
أمنح
سعدات
افطار
##بولى
متصرف
نظراء
يلماظ
348
منفلت
##وحة
##اطيوس
بوسي
يغتال
اوضح
تواتي
اخشى
363
##تانيك
##جوج
تلافى
تهشيم
329
3600
أتمنا
جاستن
عوهلي
اقرار
تطأ
لحدي
ألباب
##عت
لجنتي
417
طليان
سوزوكي
ماقبل
تركيبي
تهشم
ضماد
ابرز
##ابذ
موصد
تسوء
يبادل
منجا
شرر
يعصف
مارينو
International
##شائ
توارى
مهبلي
ثقتي
سيدا
البحرينى
شغيل
يزيح
لنكن
جوكر
اليكتروني
يتجاهلون
منعرج
تسويغ
نستسلم
محدودى
عرقجي
تفتك
##وثى
هزاني
نواخذ
اوطان
كايل
ولس
اتقل
يعدد
هدفى
رخامي
CH
صومع
يتبدل
أخلي
##تحول
غربان
اندهش
##وستيرون
342
جولييت
فيرغوسون
صريصري
My
أضم
انسر
مسماري
أدلي
368
##RE
فلتر
رومنسي
انعزالي
منفعل
ريتشاردسون
رزيق
هزال
مسؤل
تلتحق
##ليفيلد
نبالغ
سيبوه
جنابي
ارخ
تخرب
1840
تردع
احسن
احاسيس
أقعد
أستبعد
أطمئن
##ينغز
تنزلق
##عث
ملتحم
سراويل
منسوخ
يعانق
اجتناب
not
دوال
تستف
362
##كوفسكي
جربا
آدام
حريت
أشعري
قيلول
##اسابيان
يطرب
1891
فابيانو
كايرو
سلوبودان
هريس
مكور
يخزن
يبسط
يبيح
##وريان
##قرى
اغنى
صرفند
##شابك
بوحليقة
ثمام
##وميوس
DSL
##ايلى
كاريزما
##xf
ننتج
أعراب
تنحاز
##RO
##سيغ
980
تصبغ
سماري
يسرح
سالز
Res
مغاوير
يريدون
El
كمن
أنسا
1878
كوندلي
Sch
غبق
##واز
اترب
##الحسن
يروعك
تروا
ترانيم
سينت
بيتهوفن
جوبز
ينعى
انذر
رينان
##هرين
##نيب
سمفوني
مانو
351
تتهاون
##سرف
أغبياء
##بتان
كأنني
موسك
سبايس
870
طوقان
نفرط
شردى
صواغ
ترمذي
##سبو
إعتبر
فليج
كونغولى
بيسيرو
جذرى
نقارن
ابنتى
##ital
اشرط
روفايل
خويلدي
أشتري
نواس
هيئتين
يصوغ
المبارة
سيكسرز
لوهان
هويدا
##انغو
تؤوي
احتفى
##CD
اقتضاء
شهادتي
إغناء
معرقل
قضيتين
بقولي
ريموند
توضيب
أرنولد
مجزأ
##ركارد
تنتعش
جارسيا
Par
قفا
مجازي
##اليتي
سيرلان
مروى
روشة
متنور
عطيشان
المعري
##زران
نتواصل
أنيبال
فيلهلم
تحجز
مستباح
يعتصم
فيق
ارخص
مرقس
منقف
توتو
1876
خدماتية
ألهب
تتأمل
الشهر
كعاد
##خاخ
معسول
تفش
يستولي
زعبل
ستامفورد
##ويليت
نازف
تسنى
أتليتكو
##enc
##فجر
##لاتي
ميثاء
يظفر
أردي
تتملك
بقشي
لومير
لارسون
ميوزيك
إقصائي
##مئة
فرم
دورتي
يبتلع
متعجل
فوضي
تليلي
أرفف
دريسدن
طحال
أيك
دواعش
بدرخان
توكيد
##فلد
يستعجل
ويزاردز
تكنيك
تعتني
نوازع
تياغو
المام
خاشق
تنفيع
ترهب
متقي
هوش
يحصى
كينى
كينشاسا
ستيل
كدر
انهمر
##تيكت
وقتذاك
تدريجى
Amer
##وتسكي
مارتي
هلالى
ريفالدو
محاز
مغنم
نكسب
إلينوي
شينغ
تختفى
تجعلني
وصفي
رداد
##ختار
بنز
##amp
صغري
ضفدع
##امينا
يتولي
قرائي
استرضاء
نخامي
##نجا
ببلاوي
عانا
##وجيا
زينل
انطباق
كندى
ناح
متجم
عرمان
بلوست
مباراتا
ساهك
بلايت
تغول
تتفرع
قدري
مذهول
يختزن
##ology
دوفيلبان
كوير
ينسون
مخلل
ستري
مرداس
##سيتش
ترايل
بريجيت
تذويب
أتعرف
تتلاعب
رفيدة
الغربللي
رزين
مندي
أميز
أسال
##منستر
تفحم
##تشوك
بيسبول
اقال
##ورتا
##وتان
356
790
حابل
قين
##جلي
ايميل
سيدان
هيرش
ميليتو
iP
##101
قدمي
إسلاموفوبيا
تقيؤ
427
شوكولا
يلمع
إنع
دومين
فولر
مصيلحي
أظفار
الحق
أنح
يتولد
حقاني
1507
باستيان
رابتورز
يوز
متجاهل
1417
يتعزز
أعجبني
دعبس
ترشد
متمردو
قشري
سنبلاوين
قاهري
معسل
##اتيك
ملتقط
خرفان
إلب
##uro
ميرو
تمييع
أنجولي
جاين
خوست
برانكو
##ثول
تعزل
نحث
أطفيح
تنصيص
بروكسيل
مليشيا
رسب
استبان
تمادى
برح
أهوائ
بريتيش
كاريوكا
براي
تأبى
شركتى
أزي
تقهر
أيزو
معرفتنا
##زنه
يضمر
ميف
عبدالفضيل
نيوت
ثوران
طوربيد
الكويليت
ترضخ
تصمت
##وكوف
341
إهدائ
##اولو
مفعل
تضميد
يؤوي
أبلغني
نخلق
ويد
##EL
##اكان
برادعى
أخوات
دواي
مارت
##اكري
ولفرهامبتون
كريك
اتضاح
أوتيل
يشفى
يسارى
##ene
قيرغيزستان
نشوى
شفاهي
وسواس
خليلي
لوزي
MP
نبنى
##تسا
انكار
أجسد
يزحف
عفاريت
يتأهب
دابر
يجاور
تلطيف
##ترحم
منقرض
موصلي
هليوبوليس
قذار
قبندي
##وزان
ينزلق
##FC
##ger
فراء
يساوم
كوبرا
كيروسين
نابلي
لومان
الكر
مستغان
جلاجل
توطد
##انتخاب
يلغ
نلسون
##كلير
ايكر
خراز
يتناقل
فموي
1886
مسيار
كونكورد
سويسي
كوكاكولا
دريدي
إيزابيل
دولتين
مهى
حالك
قلن
منعو
كتاتيب
حمداني
رويض
كركم
أوريغون
مظروف
ناو
أوراسي
متألم
378
استنسابي
##قوم
فروخ
كيدمان
ستضيف
ادخاري
سقاي
ماساش
يستفسر
غريف
دردري
أبوغ
يلو
غذامي
339
سيلفر
تشاو
خليق
رنج
##رون
##اجير
Min
بلادي
سلوقي
قوض
يؤول
نعزز
هرش
شولتز
كراء
يوريا
موحي
ملتف
##وكى
يخاطر
اندرياس
تمجد
أباح
يكلم
يبرم
مسألتين
استنزف
يانكوفيتش
##ose
نيوترون
وبل
##ثون
ناغى
مصقول
توحش
آصفي
دكار
##تروف
علمانى
اساطير
هيدرولي
KAS500
أنجع
تتقن
غربال
كرف
هوامير
تنموى
سخاف
1893
يراهنون
358
غنو
ساكاشفيلي
فيمكن
ديميتري
لتي
تعليب
مهلك
طريقتين
تغرب
خسران
تجيير
##ليلي
##افيك
أقبي
مثالى
ألاحظ
مطلقي
طائرتان
##جيرو
##ألك
الباني
أمتلك
تجس
يبرد
وعاظ
##نهايت
فيدال
يريفان
يخب
##يسكا
يجمد
يجدن
ميران
إيكر
تستثني
442
عمشيت
تنجو
ارتض
إستغ
ننام
412
مسيب
##ركش
##جرع
غصين
توقظ
بله
تسمن
##اتية
سيلفيا
رافال
اصطناع
دومينيكان
مأمورية
فكتوريا
يشم
تقذف
يحى
اريج
فرير
عنداري
فرصتين
يغلي
des
تسلس
يزعزع
احاديث
فجيع
أرغ
كيلانى
مونتانا
##الن
شرود
549
##أش
مساو
أبقي
ولج
ركيك
مؤطر
عقلا
أستان
503
رميحي
فيليبو
باسندوة
منفلوط
##ونجي
يرفق
جاكلين
شويعر
فدع
تسك
يوشي
إلهاء
تمرر
جمش
تطوف
تهالك
بورج
مطروشي
نقتل
كانبيرا
يعتني
يستدرج
1416
وقص
ديمب
##جدور
هربرت
صائد
انغيلا
##ution
أكسجين
متوحد
مارتينا
متشرد
##oft
##form
امطار
مثوب
ماكسيم
يبيت
كرت
366
عوضى
970
جدعون
ميسوري
يستقلان
جعار
##احد
تقص
سلهب
مساعدى
مصي
براس
ايجاز
مغشي
فارت
فابيان
اتفقتا
مشفوع
##جوانا
ماخ
تخش
سكنا
صيرفي
فطائر
##غه
مبس
مسلمو
اقحام
يهين
كونسورتيوم
فياغرا
مردوخ
تئن
نصور
يفتك
شيفرون
يفوتني
مندب
فكك
باستيا
قاؤ
##تييه
##غلاند
ميزوري
##ماركت
واجد
مصراعي
جزاع
402
##فاليا
##مايا
تدلي
بيسرز
مقرحي
جيار
حبارى
##co
مراسي
استثنى
454
صخير
##علم
فاجر
##yn
عمور
416
تنباك
حاصباني
ماور
##تراء
تخصصى
نراهن
لوبن
تجمعي
لمى
أمريكتين
استروجين
أسامواه
بيساو
##ونيكس
##اطيء
383
جزراوي
ماستركارد
اوي
أواصل
تدب
##وجة
أورش
##تصق
344
535
يوه
ينهل
تزدحم
For
ياش
##زيوم
##سبريس
أدوميم
باوند
##ستري
جرانيت
زروق
810
سوسيتيه
تذكارى
##يناس
##ستات
تتعافى
فهرنهايت
هوج
يتبلور
وودز
كيسي
فيين
##عيبي
نقاو
امضاء
409
اندحار
##كتب
أمبير
نحا
حظا
اسكتلندا
##إلى
تشينغ
مساعدو
1894
##ives
فاسيلي
بوغدانوف
إدموند
تنل
وجهي
يرمى
ستغلق
نعسان
##شرفة
اديب
فرادى
##سكايا
أطبق
ماركي
##شدق
انبثاق
Ab
عنفي
دعاوي
معتذر
ادق
##كينغ
##ave
جبيلي
عتال
##يي
##اطس
يبديه
##طاوى
مقحم
تندفع
امد
حليق
انقياد
قلو
دماك
مستحسن
Or
خدوش
##ينيتي
بيلوسي
فسطاط
متوهج
تعزى
تسطيح
تشيرن
تعمر
مطلك
خصخ
##شىء
تينيسي
ذرف
أليخاندرو
منقح
جغ
ومل
تجود
إدلائ
نستذكر
إثاب
مايكرو
ألكتروني
##نيز
##لهى
مطمر
آفي
زاف
ضاد
##جرف
##دح
مرسال
هيكتور
يستدرك
تخجل
مزيل
تونر
أزلام
يحذو
SN
331
تحريز
اصداء
سبارتاك
نيللي
زمرد
هوجم
قائمتين
نلتفت
دقيقتين
يازجي
انزي
##بله
لمو
سنافر
##غروب
أذين
ندير
معافا
موء
لاز
تفاؤ
خصيب
صائف
غبر
احبط
قصم
محفوض
قاصم
جنج
اشرب
حباب
اكتاف
تتحصل
ندعي
حرفاء
##eth
طوف
##كوفا
##غدغ
فيستا
تغص
373
المشرفة
افرز
بلعوم
as
كريب
وارف
تتعايش
افرع
مايزيد
يغلف
استغنى
أشرع
طابوق
اغاني
يوفال
إنستغرام
شيحان
كراع
اربي
1415
يجاهد
منتجو
دبيخي
خاشقجي
بابي
سلو
عبدالأمير
##قرأ
1879
إيدال
Comm
##fer
لمعلوم
زيكو
تهديم
اتفاقيتين
غصون
مرشود
##ادوريس
##تجي
نسقط
ننزل
ترامادول
إدريسي
استغفار
تربطني
##هايمر
أتعرض
باخوميوس
هينغ
ألجأ
وقعتا
تكتظ
لويجي
متصلب
محدش
نعمانى
##ثو
اتاح
##اتلى
سبارتا
أبولو
ورسي
لاهث
فاقع
منشار
##يلة
تثمن
ندوب
مندق
مفتشو
جيسون
فأل
دفاعى
مباراتى
خصخوصي
كلوديا
فالت
سوبرمان
##فيغ
رسومي
يساعدني
غوغاء
يتحل
407
مبسوط
فوكو
مخالص
تخليق
سابين
نميز
##ضوم
محارق
دولفين
نتقبل
تيز
كودي
سعير
اعقب
حبلى
شند
غيلان
##الان
تخلد
حنايا
صويلحي
يزيدي
##جيو
ربوي
كاسانو
متون
##برن
سياري
كويزومي
إنترفيرون
غارتين
388
دماث
كبدى
مجرن
اوتيل
ييأس
##بلج
أغمض
قناصل
ادا
مانغا
سطع
##أصل
##عرف
انثوي
تؤجج
كوابل
سوهارتو
##ash
##ident
H1N1
خاط
مشد
##زيك
اشاهد
متغطرس
تشخص
سبقتنا
كرادل
بوليسى
يضح
يلبى
##وقة
يحمر
أختلف
كلاشنكوف
مقصف
ستيفاني
كشر
فلاسي
متحرش
##att
منفر
اقم
إجبارى
سوبارو
جرابلس
ادب
فيللا
دويدار
##use
لوكسمبورج
اريد
مجارد
أقص
يأمن
575
جابو
اطلب
فراع
تلاقى
ستارت
إخصاب
DVD
فا
##ورس
مصبوب
يأبى
باباند
جبناء
ارجنتيني
تبليسي
اشرف
جص
##هابي
إبدال
ندور
بكره
طليس
إعلم
شهائد
بطولتين
زراف
استفاض
تابل
خدر
##أمل
##ble
ستريدا
رحماني
تتوعد
سوت
##خلي
أوه
تخون
ستاني
أثواب
فاسكو
إينو
##طفي
##كيلي
مبتهج
1887
خاج
##160
أعور
دوبل
1883
##ont
آرون
اهدر
##بكتو
##أف
أمونيا
يستذكر
تغض
جويني
وقائى
استحصال
كلاشنيكوف
يتناوب
مامي
يغرس
تستشعر
تلاوى
يومئذ
اعماق
يقدمان
شوستر
لقن
صبحان
##uss
زخور
Wind
يالله
عنا
اجلس
غابوني
سنط
صفصاف
بورجوازي
طهطا
يتجمعون
تتفرغ
offset
فطير
كمار
تنهمر
منتفخ
سيارتان
اميرة
لوكوموتيف
سليطي
مازيمبى
تناسل
بروجر
نجيل
##زاليز
موانى
مغرر
ميلاني
كابريو
فيلبان
Black
عبدالقد
تفرط
شدا
379
بوبكر
واتسون
##اميل
##ألأ
لايخ
بسيهات
أعشاش
رائدي
##طوف
تنجيم
يضير
خنساء
باحه
راينر
رزاز
##تزر
موش
قرغي
ألمونيوم
تضايق
462
بلومبرج
مؤنث
أفظع
سراديب
سيساعد
بلوستارز
دركي
مجن
ناز
إليوت
بارقي
استعن
شنقي
372
675
مساجل
فيدخل
scroll
جموم
اعصاب
ناسخ
نزور
حميميم
باوت
ينخر
مصايف
فرهود
داين
##ower
قاف
##شه
احكم
376
قوص
عزاز
بيلباو
##oth
براميرتس
داجن
أبه
رويعي
درعا
شوربجى
خيزران
445
جسدى
كولومبوس
روجرز
##زيتا
يتنكر
فرساي
حجل
دايتون
atrk
تنخرط
عمليتين
تؤكل
ميثيل
الأنترانيك
شامب
مرتش
تطوق
جاعل
##عدي
البس
تنومة
لمعلوماتك
ينسي
1875
بلاغي
377
تشاطر
ميتشي
طمي
يذي
##BA
مستد
##امية
349
أعج
تحفيزي
موتوسيكل
كفوء
ساموراي
مصطحبين
خاش
##اسون
##سعود
ديراني
ناظور
Ind
متعاطي
تنصير
سلفاكير
بوبشيت
متني
ارصد
ستوديو
KAS601
لزوج
بيكيت
تهتك
565
And
دات
مجتز
اقتطع
يتدربون
اقطار
me
جرداء
وميض
إنسي
تقاطر
زواريب
قرطاس
##gy
معمداني
المت
تصفيف
##جنت
يفاضل
تعبوي
are
حمانا
دانى
نخلص
ماجر
##سيوس
مهندسو
إطراء
باباندريو
عناكب
بيكون
تداعى
أبيع
متجذرة
فوط
تأوي
يختل
مادم
بلايزرز
ممزوجة
معمارى
لوقا
Qu
تيرى
##غرين
افتقر
##زنهاور
دريك
فوليك
السان
تستخرج
زوليك
فريمان
تزاول
اقلي
##ذربي
سحج
إيمرسون
اطلق
شبت
399
كاسيني
امريكان
خود
##ps
متستر
يوجين
401
لويا
قمل
أدعم
إفراد
تريش
يسألني
يزدهر
##تاغ
موكول
508
الغى
لمن
جولدستون
يتوسل
أخطبوط
صفتي
ديلو
شاخص
إضطراب
##الل
##انكا
معطوب
عنتاب
مقلا
كلارا
##شيات
اكتتب
اماكن
359
أناتولي
أرش
بومبي
صديقي
رينا
غوم
##امون
إنض
أتحدى
ننظم
##شيرو
كوسوفا
PC
يلتمس
اسود
محيطي
غوردن
ضن
هيفي
تبوء
Arch
بريمي
اقص
استرشاد
وايلى
تشونغ
لنت
أتشرف
إنسحاب
تضج
ترفرف
اضيف
أدائي
اخشاب
يخنق
زرنيخ
يأوي
أطمح
رودس
CIA
مبصر
##وبري
مسلمانى
فجرنيوز
دحروج
أعلق
مجنح
تغوص
كمبالا
مخصوص
ينبوع
هيرنانديز
كركر
أقحم
##قاذف
فيتل
ترودو
اقتبس
نقطتان
##نساني
تودد
ساشا
ملبوس
أوربان
انعام
يتفادى
قشتال
رجيش
بصح
ايفاء
جولتنا
زيان
ايذان
قصيب
متنافر
945
انطو
إنضمام
ينجر
ريغ
ننجز
غونزاليز
نيشان
ليبرتادوريس
تخب
تسقي
مجموعتان
سكانى
كفرك
فتوا
مستعرب
يتشاور
زيلع
ماينتس
ISO
فيتمثل
انطفأ
ارتحل
بيرق
يبكى
فكاك
##lect
##نغهام
زائير
العل
هاوارد
هويدى
اوكراني
مصراعيها
اقد
##ينيين
ماريجوانا
جينيفر
شوكولاته
سويل
ضأن
يبحر
ينثر
سيق
353
متقاض
1865
قزحي
صوفر
ألبا
أدعى
تتنازع
مولدوفا
كاونتي
آو
اسبر
ميريديان
أنها
سيال
هدان
إعتراف
سكسوني
وحدتين
هندسى
عديل
هك
##تبري
يستأثر
نسائى
تهوى
يخذل
صدقوني
إكبار
سحايا
تفاؤلي
واسطى
##عرض
##ستاغ
بروبي
تغرس
الروماتيزم
اوكس
##ليمتر
ألفيس
نبراسكا
يرضاه
تعهيد
ديج
لقيم
غيرى
ملحي
عقبي
يرتقب
شنان
نسناس
صدقني
نانوي
414
تجسسي
عزي
ورير
##خة
##زغ
##ترز
رياب
##rid
نغيم
جموح
تطويل
حماقى
فيردي
منياوى
استراليا
فيينورد
خطوتين
عرباوي
تسمو
أحراز
شيراز
طوى
##ريث
متقد
كردى
معدد
ماكاو
متجمهرين
سجي
الز
تداع
تفسخ
نخضع
حاسي
رولين
ملص
تتفتح
ينفك
فحوا
كونداليزا
شلالا
ذوب
##افه
تطي
تغلف
رجف
اوروبا
كالون
زاغ
تقض
ترن
أجيليتي
سومر
كاجودا
يقترف
مارتش
لوكهيد
إئتلاف
جندر
إغر
أفتقد
تبتلع
رجعى
بواقي
رأيتم
شنو
422
كساء
##كاي
##يرين
##ولفز
مترهل
جاسوسي
كمبي
محمص
##urn
فولفغانغ
ترجو
##وسكي
وقتئذ
يستوي
جراب
تذبح
احدا
يستقبلون
910
##حقاق
إخبارى
يصطف
381
تيموثي
تتلاقى
##تشيو
باجور
فاقم
##كرك
شوارب
مارتينو
كاراكاس
1750
كوفيد
نجني
##شيما
##ict
اسيوط
اعداء
##كفي
متولد
لايش
قطعى
حجى
مثالب
389
مديون
##وهي
##سيت
وحداني
نمذج
فيريرو
##خدع
تستوفي
501
سامبدوريا
مزلقان
بايز
جريب
داريو
تبالغ
نيوم
برنانكي
458
نغلق
ستمئة
بوندسليجا
لاء
أحبار
اعراب
مهوس
خلاء
راديوي
يتشبث
البلاديوم
##يند
مساق
يدحض
سيرخيو
يوناميد
بازعي
متناغمة
خيس
نقلو
418
بكوش
أنين
##ابض
##ارسون
استنجاد
سيريزو
احقي
ينبعث
لاغوس
##we
جهتي
نقطي
يستشير
##ليلان
مئير
كتالوج
إسفلت
تتوق
قناتين
يصحو
يستنزف
ديكارت
IN
##ديك
أعظمي
التصق
وشائج
##يون
سبكيم
باركنسون
802
عطشان
فراغي
بعيجان
جونستون
غامدى
بغيلي
أوزاعي
بلنسي
نؤسس
صاعقة
أنظف
##سمو
قتلا
يذق
فاسق
غشام
تاكسين
مجنس
فنس
جابي
##تت
تناظر
اجزم
خلوص
##كوين
استفحل
توافقى
فريديريك
وتيلي
دبد
طافي
كمل
حسانين
تغافل
قصدي
##ارنو
545
بلتاجي
مايرز
نفير
يسن
غضاض
##تسوف
##ove
سندريلا
مرادي
##ربيني
نشاء
كريكيت
ماتزال
تراخى
شللي
يبدى
براني
أجج
قوطي
يجرد
عطس
هايدن
ar
فتع
##ke
متعفف
براغا
باوزير
كفركلا
تدجين
فنرى
عاند
ايعاز
بوطي
اربكان
أوكامبو
زوريخ
تاتيانا
يرهب
##لينوي
تتأرجح
زيرو
عيص
هريدى
بواطن
هولدن
بوليص
خبأ
##763
##تاهما
سقيم
برايان
بارالم
حبو
بدرو
نؤدي
ببر
فلح
نضحك
هذلول
بورنو
##inal
متلهف
تناص
##كتان
امب
يخشا
عبدالعليم
زعانف
مونتير
منبسط
بريتني
قلاب
كريش
##793
يدمج
كأنما
مكلوم
العلايلى
##يفة
مهج
نجامينا
عائلتى
فيفيان
تسجيلى
##وكان
نراجع
ريتشي
كروكر
خاني
إنخفاض
تنسف
شامير
تقتضى
##010
استهلال
يتهاون
زعرور
##RI
مهضوم
##طرون
تلقو
لقيط
يتخصص
مستقبلى
528
##ater
أشرق
أتلتيك
الحمد
##تزل
374
1863
1884
تظليل
تحور
نقلل
أبرد
##red
##ثلان
رصاف
عولقي
نبهاني
كوشنر
مستغرق
يتهيأ
##وفيس
مذموم
أنتقل
##ترش
حواضر
890
##ings
توباغو
ac
##وندو
متربع
اشعر
يتسلق
إفقار
صندل
اوبك
أسلوبي
بامب
راكم
نستنتج
485
مشجعو
باطون
وينفري
1869
مغناطيس
تكريتي
أديم
سديم
##ثث
تراع
بيتى
سندس
مليلية
يرش
تكتنف
##ناؤوط
مناحيم
un
##RS
فيشير
تطاق
لجنتين
نيجري
غايب
سفارتين
مشهداني
إغواء
تنبذ
دوبامين
طافح
##OC
يتباط
##فتني
قادمتين
##ated
شاكيل
AL
##سبور
تسن
1402
##oci
##IVA
تينيت
##ميه
مستق
نمشي
أنفال
أوساكا
مديحة
بازي
##كيلا
بونتي
##ife
فلاشينغ
لوفيغارو
ستف
اللق
تتخصص
عطاؤ
يحتكم
اوجه
##وريشن
بروسي
يدهم
كافاني
يتفاجأ
يفيق
تتمدد
بقلاو
تيرن
غوام
##ارش
مراصد
##وريك
تأن
تهجر
صالحى
438
تتفجر
انزياح
مناعى
مذيب
ظفيرى
يثن
أنخل
ماص
مهاجمو
زفز
أرون
تستحضر
اشقائ
يصغي
الشربيني
أدرا
يستغيث
تركض
تلتصق
اشقاء
أساسيتين
437
مرزوقى
اوامر
يوحى
البار
تراتيل
تتبرع
##جنس
ارضاء
ابوظ
سيسيليا
شكو
سمائ
تهطل
صمويل
369
قرقاص
##ليكاني
تحجر
تحنيط
مقاتلى
تمير
مخيز
إذاعى
495
ميكانيكى
كوليبالي
مشترط
اربح
غوتيريش
تخسيس
قصدير
ليبراسيون
موسوليني
Sec
يبع
##يث
يفاخر
إنجى
396
615
تنطلي
##OM
موسر
تطعم
رأو
361
صدقا
عقيقي
تسحق
مموه
ستيت
تشومسكي
ورسيغني
Micro
نودع
كافكا
##lass
##ound
لودريان
هلباوى
##اتيه
كليو
بيرث
فلز
فلنت
تقويمي
8500
بليز
##صمى
##ستيد
فرعى
419
مسحور
رائف
تأمن
##وليتا
مجرور
هيوستون
مويا
##BI
انجيل
غراد
تاميف
يدفعني
دلما
مخروطي
أسلف
حمقاء
بلانكو
##بروولفز
لز
##روه
يندمج
نتغ
نرمين
ميكروبي
تصفق
متبقى
أسياح
يملؤ
Pe
##بحضور
فرشوط
يكيب
متعمق
برسيم
يشيل
أطرف
يمدح
الهومنتمن
زعلان
جلفار
تريف
##فرغ
يمتزج
فوغل
خامنئى
##able
مامادو
اللقيس
زجل
اكثر
يختطف
تلمع
إمبابى
تسايتونغ
ماغي
تتربص
تتشابك
جرجا
ST
يافي
يستوقف
قطران
تيه
393
علويانتخاب
0210
جهوري
يتمدد
مايح
جوير
حذا
قشط
##وبال
تروم
قوه
شعواء
صعودي
جلابي
انتركونتننتال
أيلاند
فرين
لاسل
احسب
سعيود
زوائد
سرر
نرتقي
Sm
منكسر
احقاق
ازر
##باسط
أذا
أنساق
غورباتشوف
ريابكوف
Pol
دائي
##ميو
##كيتس
مغرق
ابكر
بثور
يرتق
طيفي
1866
خفى
نيكو
##زعزع
آغ
أساور
بايس
حوى
##ميلا
أحدد
عبدالباسط
هدلق
يؤديان
رقابى
429
##rig
إيلاف
معتقلى
سيتروين
أورشليم
عذار
##ole
##ائكي
##ويدي
مائتى
إفريقى
ليونز
Ag
شويش
##اجرا
هولبروك
##DP
موئل
##نيه
أشرب
يحز
صوايا
تحيى
طومي
##طالب
تتقيد
نجلى
إنتشار
##وسة
جرو
لوغ
اصبر
أعداؤ
سكولز
طوز
##حا
انيق
سبير
بترو
تخلع
لامتن
Cor
نيرو
##الش
عمادي
##اكوم
بيركلي
كبتاجون
بقدر
تعفي
زاخاروفا
##ريكو
تندمج
ركاء
431
فولتير
دمياطي
1868
Dis
فيبلغ
مواني
428
##iness
تتدرب
Cent
ارحب
ارنا
تكافئ
أفن
ينفخ
مرغل
سيرفر
باناثينايكوس
يستقلون
شانغهاي
هنداوي
صياحبحضور
عربيةفجر
عانس
يتكاثر
أوصي
تملق
ينطلقون
##بلورر
Net
عسف
عاثر
تتاجر
##تعامل
مهري
نحظى
إنسانى
مضخم
##شناق
413
##زونز
رميش
عبدالقدوس
صهيب
عمانى
توشيبا
إغناطيوس
غدي
فاريا
واج
هيدي
اعطاء
يقمع
538
##سبيرغ
جاكيت
تعطش
جناب
كرزاى
يرشق
حويصل
باوتشر
##إن
موك
استيطانى
مقصل
جانل
قحط
##ناش
توالد
تمبكتو
نفدي
قواس
804
ليبرتي
533
مقدادي
##شاع
##فند
انزعج
ستخدم
متكئ
أونلاين
إيلان
شذا
أسمنتي
بنازير
علمتني
دبيس
بقاؤ
روبرتسون
عاطي
##اذر
##صدرت
ستع
مورفي
بلام
بينو
رغو
خصيف
تذيع
عائلى
أهر
أديل
يويف
##ماتو
أبول
u15
زهق
صودا
قصيمي
سيريلان
كامارا
هرقل
391
افتراش
مظلل
شويغو
أقتبس
##نابل
اتقاء
هنيدى
فسق
لهاث
عبدالباقي
##ينوف
أشبع
تكسي
مشنتف
تتناثر
اطال
قتام
تعير
أكواخ
نميري
خزاعي
نيفيل
مخدوع
ابط
تتظاهر
ارتح
ارتخاء
يستنجد
سودي
تجمل
يرفرف
نوافير
الغيطانى
##خط
ميجر
مثيرى
يهدئ
نستعمل
اغتنم
هينغيس
مرقاب
387
ذواق
##باكستان
بمواجهتهما
اعدم
موضوعى
456
ميرغني
اعياد
حاذق
بوال
##ليكا
أمهر
إنجل
ترزح
لانس
عكرم
##بئ
اتكالي
##سيمي
##تبقى
أحبائ
أتأمل
اصال
مصم
تشظي
بالتيمور
مراسلو
تتأهب
حلوانى
بلقاس
SP
VIVA
نفل
استرليني
كفراوى
لطخ
عوالق
تجتهد
اخضع
جيلارد
فيتوريا
غوك
أعواد
سعا
تتشرف
##نتا
##زرت
لوكاش
بزيع
إختلاف
افتخر
متأهب
##rans
آثام
أعبائ
يتستر
تتوخى
##اشن
مغانم
يلام
تبرد
سوفيت
ننتصر
يتباطأ
##ونات
تعذب
سيام
تستلهم
يصغر
لوائ
سحن
مستمتع
قيض
إيزيدي
ازور
أراكان
مسقوف
On
يفند
##تعرف
قارون
371
KAS60
SS
إبي
فتيح
ايست
ايزو
حجيلي
##air
اتصف
متعود
موثوقية
مايش
مساب
##تلز
كنس
تلاوي
اوبئ
بروكس
##أتي
تعازى
ايتم
احدب
روستوك
مناقل
جماد
يعبأ
يشاؤ
كارفور
منطقتى
تاميفلو
يوبي
دانوب
تنقيط
لامتناهي
كمد
##ائفي
تقمع
تنشب
تيرنر
نابوليتانو
أساعد
حرقان
كرافت
مفاخر
##جلة
1450
تورك
سجني
كولو
مفوتر
غازيتا
Int
معصوب
ذال
مويس
يات
كلبي
اخا
585
دنكان
يسكب
إثناء
أشغل
أقرر
إستحقاق
ليونيد
ديميريل
شطط
نلفت
##con
أنبل
##انيتش
بينتو
تبطل
نسى
443
روسيل
هورست
جوج
سذج
فاند
##ky
نيويور
رىء
منمق
أوكسي
خططي
زيكا
مثق
تقاسيم
ريسي
معاتب
ممهور
هزار
هرتز
بشي
##اكن
##يرش
1413
معتصمى
فريجي
اعطاؤ
زاير
ينسل
احتضار
تتمخض
##تهصدرت
انشطتهصدرت
براديش
يونيفل
مخيزيم
Nd
##هاما
عطوف
##وفيك
فولكر
أعرابي
طهو
فيص
مقاه
##وطالب
فنر
جحور
كشميري
يوتوبوري
تمبروولفز
أبنودى
478
هيرتا
نغادر
ضلل
اتشي
متناسيا
تتنامى
طارح
فاديا
لئيم
جعيتا
##ريع
تحزب
مقيرن
أغتنم
غراندي
مفوضى
##own
ترش
##ينيز
أخيار
##وارا
ملكوت
الأستر
بئس
وريرز
نشدد
هانسن
يتنقلون
تتزين
نويس
أكرا
يوكوه
خلى
كوج
ناقم
##درة
##اوندي
املج
محلاوى
سلاب
##ابلن
مونتيني
أضداد
كالتشيو
##وندى
##لسف
ستشهد
أستعيد
أتلقى
يتنامى
تيتان
ذيابي
عجو
جزيرتي
قابسي
392
جوهانسبورغ
اقتصاص
استشاط
نكوص
0901
TH
لاقي
##ساف
تمنو
حيف
تسرح
يمعن
ابتغاء
ركبي
##وو
انجر
##اعلى
مرقم
عملاؤ
وجر
اموم
يشتهي
ومار
##مني
حركتا
ميكروسوفت
جأش
يخض
ترسيب
كارلسروه
لبد
عرجاء
تخيلي
حركتى
باولا
تسونامى
نها
يتمخض
أوروبى
حمراو
برمنجهام
أفريكا
##iel
##فالي
فيرف
عيناك
يتبنون
فيقع
موريل
نسكن
تلاسن
اشعل
اوبري
لاإنساني
##كبر
مصاغ
وسائد
افراح
غونزالو
آيدكس
ملغم
1050
بالول
أهداب
ضرير
##شاهد
مطوبس
إقلال
حجيري
سيدو
صناعيين
655
اصلح
فكتور
قود
##أمن
موه
هوبس
حكايا
ملبي
اخواني
بريز
نستهدف
يتقاعد
نيازك
##نوف
##اموتو
يقطف
اخباري
1859
جيرو
تحبس
بطريق
يطوق
1864
استعداء
ضاحى
شهادتين
تتحطم
متجاوب
تاز
فجل
تصلي
جندري
سمبل
تبهر
كليبر
يجند
نظيم
تفاسير
يستجوب
اسلاك
فولكسفاغن
بارالمبي
الين
هولاء
مملح
ايماني
اهدن
كاتيا
غتر
##نبرج
كلداني
بداح
تبريز
##سفيل
صهيل
يغتصب
فكه
يتفنن
يجامل
##تنشتاين
Exp
Col
أذل
لامن
تنفر
ريكو
روشت
طربوش
الكرد
شؤم
تحسد
أفخر
قطاعى
##بتا
قفاري
مسرطنة
ملايير
أيمان
##سات
##غفر
اردني
حنبلي
تسلسلي
##زرف
أنك
علفي
##تحان
اصلي
بجاوي
مبيكي
بمح
بينوشيه
زعبيل
تيبس
يتآمر
استوف
تماد
إسفاف
خاتون
بوبا
باغي
##غيش
##عله
تسبيح
بيرسون
أبوالنجا
صيرفى
صاري
فاف
أمبراط
عنانى
سراقب
بهلوان
ارخبيل
يوكوهاما
دمك
حصيف
جديدي
تاتا
عجيلي
قيعى
يصم
تماطل
جنزوري
##RA
موين
يألف
شهريار
397
اريتري
مشبه
ترغم
اعاصير
نزر
447
تطوعى
الغي
نيئ
بخيل
أرجوكم
قنيطرة
تصغر
ننوي
Univers
مجتزأ
جرك
##SI
متسا
تنطفئ
يعظم
أربكان
رجائي
لحسن
متوخا
أتزوج
شقاو
أطيح
1867
عفراء
كوردستان
انجي
هيكس
1150
502
مينا
يتلقي
ايلد
شذر
كسك
1395
ازهار
إنعام
ارستقراطي
تكاسل
أغلال
دافن
دالاي
قاذور
ph
تلهي
خلوف
لنش
حنو
ميثولوجيا
استشراء
يانع
ينهب
سيشل
قراقع
1405
دحد
لوبى
##OL
مدهون
تبوؤ
1813
الشهرستاني
مشل
يسل
ادخال
صمغ
يوليوس
عذيب
##ونيكا
برينس
تنظف
499
إمل
تشيس
وطيس
إستك
##رينج
أبراهام
مقسط
توخى
تسطير
تهامى
عبدالعالي
نعوت
##ئناف
تصديرى
مريج
مستشعر
الكردستانى
انعم
هيدروليكي
إباء
غجري
ودد
زيزو
معدا
اقترع
خازم
تخدش
##alk
وعز
الدكتور
تصافح
فنزويلى
Bro
سياط
اعلى
مغامس
امتزاج
تضرع
طريح
وشر
انيس
##اسين
ريجان
حكومتان
صحيفتا
ميريلاند
يبرود
يعتدى
الأسترالى
بلوتو
##اميا
موجابي
جولاني
فيرست
جوزو
نتحول
##ma
##Sc
مقبض
ينتهز
1789
سابح
ننتمي
فيزيولوجي
تعويذ
##باند
##زمية
##بلس
بيكت
شواف
يماحي
أوروجواى
مونو
تتناغم
مبحث
كوندليسا
##طالى
##فرى
أوراكل
بوزيان
423
دانيل
متمايز
لاتم
تنه
بوسعيد
متيقن
تسكع
شايل
تستوستيرون
لوغاني
ياخذ
شفاينشتايغر
أثيوبى
خوزي
انحب
بوتيك
عبدالنور
نيقولا
سبورتنغ
تحيد
تزف
509
ارتبك
463
ماسكيرانو
حكماوي
أولغا
سفور
يؤتي
حمقى
يأو
عبداللة
نيفيز
432
لايبزيغ
ضيا
غونتر
واهن
فيتا
إسمنتي
أجدد
نسلط
PD
اطفائي
تغييري
GS
إدام
آلو
كورتيس
ياللي
غضروفي
سيمنس
أيوا
##ates
998
هاشمى
يتخلوا
ساطور
مالديني
آيباد
بلقر
أحذر
نقاوم
تعان
بلشفي
كيتو
نعتزم
452
##ريخت
ميثانول
تلين
أحت
بيقول
##درسون
روايال
أتعجب
##قامي
##اريث
##عادة
بتري
##ويان
أسوء
مخزو
قصى
حديثى
قازان
Fran
مبكى
عصيد
441
398
ابيي
ايرلاينز
شويبله
مرعوب
##يرتي
##ايور
يجود
تركيع
بولندى
تريك
##زاي
تعلل
ننادي
كريسبو
ديللو
تناز
تجادل
مختزل
667
اوروبى
تزحلق
ser
تذر
شبير
طاج
دسمان
غيغابايت
بورسعيدي
##نوق
##تلانا
##ابية
تريزيغي
سولت
إنتركون
دهشور
يترقبون
زلي
لآل
##RC
مكسو
كافأ
يهاب
غابريال
أسوشيتدبرس
منبت
برهم
يمجد
جيوفيزي
رمد
اليم
محافظتين
لياقية
##ماندو
كحال
##كفري
فراتيني
ميشائيل
أوستر
ونس
تنق
عالميتين
تلغ
تلطخ
##طينين
زهيري
شجي
##أت
فيقال
##لكم
يدب
476
##عيض
أربعمئة
ازدان
سبيطي
ايفواري
بنجلادش
صانعو
##واش
مفتقد
يساء
رامين
جيرسي
يتكئ
##otal
هيليوم
Pres
فيليز
يعادي
برباتوف
اربعيني
يطفو
فاغنر
كورينثيانز
بتي
رأسى
تعاونى
424
خماس
##ظري
مسور
لاوي
توران
كامري
##اده
تنساب
بيفر
1872
دبور
ساغ
##na
تسىء
نبال
سواط
كهنوتي
مجانين
يعالون
حنيني
547
إقتراع
درر
أبوالحسن
ستارب
فسيخ
متصالح
تقنى
تشيب
1389
أبرام
يهمس
إحتياج
محتار
سفهاء
مايحدث
آيلاند
انهائ
الفلسطينين
ذلو
دويري
جزائرى
##err
تويم
تترسخ
سردين
بودي
أشفق
ضرس
1080
نكرم
آشور
كراولي
System
##هائي
##يمون
نفطى
كلامى
تيموشينكو
تخر
ساج
مشارى
جمجوم
##زيمي
شيخي
صبى
يقدمونها
احتلالي
فاوض
##وجن
مستقدم
##اقيا
459
الر
مسكوني
بذاء
غيدو
مفجوع
نيول
نشكو
يبهر
فرعونى
دماج
أعجز
حدوت
نحيب
عربد
يشاركون
فيبقى
خفقان
Bd
توابيت
رغيد
خسيس
##اتلون
افتراضى
At
دجن
##يغ
أحتفظ
يركل
##شروع
مذكورتين
برقاوي
قندوز
ذائب
هوجاء
##عيان
تغتال
جلاصي
يساعدك
شتراوس
##شوان
##ique
سنام
بدناء
فينيل
##yc
تختبئ
مصداق
رقباء
تبدع
##سلا
تكسو
مزل
##تنز
نزق
فواح
كورنيل
لاجارد
أنيميا
مرغلاني
طاهي
يندى
تمحى
نصحو
أنجولى
عيسوي
1410
سودر
##دريتش
ساساني
##اديد
اعوام
تبرؤ
ارباك
ريفيرا
394
يهدى
زغبى
تريزيغيه
Bus
تكدير
قمتم
1877
متداعي
حنط
تعتد
تقاوى
##فييه
تخض
صنو
أبوالم
جوستين
1873
انقاص
يمينى
شيمى
زجر
وثير
##جلاب
يؤجر
ميراج
شكاوا
باسكي
##ett
متخاصم
كياني
تابعتين
يمرض
مكارثي
Ke
Rc
##لير
أماندا
##اسية
تداهم
احقاد
تركن
ايكو
كامبردج
421
اوزبك
سأست
ترتيل
منمنم
تتطاير
سايتك
يحوى
ارصاد
457
كوميسا
مومن
##فيني
اناث
تشال
حقوي
مولج
451
اكلينيكي
فيلمي
قنبلتين
آيزو
ثرب
سيكي
##اريه
اموي
ذهنى
عوالي
جوردن
كامو
يقتنص
4200
قوقل
##حدودى
مكترث
حراجي
ماتور
Windows
436
بايون
USB
راه
نلم
بوادي
استنار
اينتراخت
مصيلح
لولبي
مجارير
رحوم
##ux
أخلى
شيز
ارغم
مانشيت
عاف
مكتئب
453
بوسان
سوبرماركت
ساكسونيا
يقرع
درى
رسالتين
##تسون
توداي
باذخ
Gre
سميري
حلاج
سيدتان
518
مظاليم
يتوغل
يتجمد
منضد
##طرب
##سيك
نزولي
رهاف
رولاند
نستعين
نتصدى
##ناتون
##ستريم
نعوش
ميجاواط
نعج
منحو
غيغز
بغا
دبش
يفتعل
725
انطبق
انيبال
محيد
تنكسر
تشرك
ديسكفري
نوقع
الهيم
طاووس
SA
##مبتون
محماس
تعاريف
مصطف
بلبع
بيور
بيليفيلد
ودق
أريتريا
إتحادي
طويق
##موهان
منكب
إليان
باروسو
اشتاق
سيمبسون
غاريث
طهى
بنالتي
يتفاوت
##زلج
روميني
سعاده
يتأقلم
##برتني
روزاريو
ثيودور
ماكسويل
يتماثل
فشن
لوى
نفاع
صراصير
اذاعي
متجسد
عبدالمعطي
ستل
مبيريك
هيك
درغام
أضمن
ثغور
انها
يبوح
شمبان
انشاؤ
وأن
##ويح
##يسين
##اهض
##تباه
بداو
قواتي
بريشيا
ثقافتين
يفرد
قسنطيني
زفر
ضفير
##وشر
قداح
##ازيب
مؤنس
حرد
صحفيى
486
عبدالنبي
##اسيوس
##تحقق
ديفي
ركوع
إستقال
يتطوع
##BN
هاموند
نستكمل
##ake
بتلر
جرجي
كونترول
يكبد
ميلادى
ازدحم
484
سابر
##اطل
منتحل
ستافان
نرمي
أوكرانى
عويص
أوبراين
بروشور
##site
##قور
اناني
##برالي
توه
سمحاء
أقابل
##ستراتيجي
##تنبرغ
صفراوي
يلهو
##TM
ارميني
كاميلا
تريند
لاقط
نلق
ييسر
دولاري
##تباط
اختلق
أشهى
أولو
فنانو
##ourn
Ra
##قولون
زهي
عتمان
مسج
هدسون
ضغائن
خريطي
اسطوري
تزيح
##ارون
ترداد
لمعان
عينطور
سويهري
##ستيج
تساعدك
تهييج
بزغ
كباش
اتحادى
صنهات
يسوغ
فلامين
ادن
رومى
يتأرجح
583
أردد
لحاف
تعبان
468
مخبرية
اكياس
تاهل
##ديمي
حكائي
مقرئ
ردك
##هقه
##اغرام
شميد
إعتقال
Gen
باند
مخزومي
##itter
اسطح
انيلكا
ينحدرون
فيحاول
ضمد
##يلفا
تناط
بطاح
اشكن
1650
يعلل
تعر
1815
تتمنا
رامس
متجاهلين
from
ضافي
##ايشي
أهي
متفاهم
513
جاردن
معمري
يداوم
لوينسكي
ديسلفا
##لينو
448
تنحو
Fl
دمل
طلابى
9001
اوزاعي
غريزليز
متجاهلة
عكاس
لوان
ناسي
اسمائ
يأتيك
ريبورتاج
مارا
##بيريا
استرات
##وفيتز
كيميائى
##ونغا
##يناهم
يشاي
##وتيه
تسترجع
Rd
زغي
##ناكم
##حدي
##فاني
توريق
هيث
كردون
يمرح
أوفيس
الحاق
بوسف
ولم
معنف
##عيش
جنازير
احتساء
ضرغام
رداع
جريبي
بيريتس
يهرع
كيوان
متعفن
يتسق
هايلي
صابوني
Cont
أنشر
##ديه
يتوفى
مكحل
يمشون
احتجاب
##وغا
درباس
##chn
حويك
ارتأي
تلاقح
ينكسر
تتكيف
يتناقش
تسيبراس
656
متيقظ
آيسلندا
اجترار
يعنيني
##امكس
##يسك
بلفاست
ترتيبي
تشفى
##ثنا
حضوري
باروزو
605
متروبوليتان
كزبر
تاغ
تتهاوى
كيما
ناسفتين
539
قوني
رئوى
تصطف
ايزي
411
عبدالجادر
We
نوط
##ونيلا
يجاهر
وزيرال
ساندرو
ولاول
اعتمادي
طلم
سبعمئة
يونسيف
كواك
أفيجدور
مافيش
مقشر
لوسيو
حبري
معتصمو
جحد
##ساح
شقيقتي
433
درمكي
جلم
##ضف
عمدي
تقرع
507
شموس
532
اجتراح
يدرى
موغير
ايكي
مثقال
طبريا
##انينغ
متجهم
##ject
##اهما
1874
أمانو
مقدح
أفيش
ترجمان
ME
##كارد
لاشع
دولت
تجن
أراغون
ممتحن
ينتعش
##شينو
شاند
##نايا
الفي
انستغرام
توارد
دمير
يتعظ
متفقد
أتيليه
هسام
ماوس
احتار
أجريوم
يسترن
أقطع
ياسي
أحول
دعس
نقلب
شتول
كوراني
شفتشنكو
بغل
يثلج
ملغى
##وبيك
قصيرى
##ari
687
عجاب
وفور
اهتراء
انتقادي
افراغ
ارياف
تتغنى
##اديت
أرسا
اوبرا
ايكويت
إيجه
يبالي
527
جندوبي
تاسيس
قالوش
تراي
##قتني
اعتز
يوازن
أردا
ادهم
تتعاظم
##ican
لوزتين
Syrian
وايز
##ning
يعايش
يبال
الفاظ
دغيثر
ذقون
رة
##CC
حدو
##يريت
جرجور
جولى
بيرغر
1820
529
علقم
بسور
جيبوتى
##ool
بناني
سنابس
##وميو
انحصار
يحاصرون
CS
فيذهب
سيمان
شقا
شجعني
ساوثمبتون
شنقيطي
حدى
متلاصق
مومس
تداعب
يشف
عوازم
506
تدمع
عامة
تطفئ
التون
ارتج
سعدني
##داى
خديو
##كيس
استجلاء
تنو
ميهوب
##تشينكو
هراري
707
635
يتدارك
سرحال
عميان
دائب
##pen
أسانيد
أختم
دوريس
شوفيني
انديك
ميدلتون
أديداس
تتلمس
غلظ
فتبدو
ولاؤ
##oph
##امان
يقصي
يطابق
انسلاخ
##ادت
مختبري
ارساء
رسوبي
تؤجر
جانح
اوساكا
افلاس
افلت
##قيا
نيومان
فنانى
محنط
راديسون
بتروكيميائي
تستعجل
فولفسبورج
##ستوس
تنخر
دولر
##غرة
يقلع
##استيان
قصارجي
يكفيني
All
Ge
##عمي
محادق
##وباما
أورومتوسطي
مطرح
825
خالى
##مكان
##يمد
قواطع
مطوف
احتواؤ
##اتشى
مخيمر
ترتطم
عريبي
997
Award
pic
##بوي
##الشيخ
##كنر
أرشي
نبكي
جيزاوي
رايد
ملالي
##جانج
مونولوج
##محمد
مشاوير
معطوف
همل
مشيق
تتورط
ملبد
ينتحل
زهرانى
ريجنسي
Joh
جزائى
يقولونه
إلهى
منفجر
اكسون
##ton
مسعر
إنتماء
مزاوج
##ارنكا
يقتني
امية
ماكون
دراز
3800
بسترس
خماسى
Air
##ميث
أوفق
لمز
907
ضيم
مكننة
عايشة
ميديا
عجاجي
اطباق
OS
لوع
براهم
نبك
##ode
KAS280
ايران
بجاني
ديدا
##كونا
هجير
تهوين
بارني
489
562
مكسيكى
تتبخر
قرقاوي
ذلول
##بداية
جنكيز
إيبدو
خلادي
يتدهور
تخفق
يؤذن
اقمش
يغازل
ريتشاردز
روجيرو
كوربوريشن
فارض
تروق
أفنيوز
902
زلط
عطاف
قفاص
بوعلام
لابورتا
غريغوريوس
تراجيديا
متتال
دقاق
انعاش
كسرى
ميثم
شلوي
دراستنا
معتن
بلاتين
يتكيف
أحصا
قوط
##وكسين
أناست
بورخيس
بروجردي
##xb
متلقى
يتفاخر
أيوه
ملياري
إيثيلين
##نتين
ادغار
سايب
اتوجه
ينيب
أوى
تركستاني
تعلمي
إكسترا
فيدرالى
افاق
##نيف
قرير
عيدروس
حيوانى
434
يستطعن
1391
##velop
##ادار
أنهر
مقرو
هجومى
ويت
تيمو
اصلاحي
بوسفور
جنائز
كونجو
مزارعو
نخلي
##ينها
##اكسيو
يخدش
مونودراما
اصطاد
مزيك
لايزالون
إربد
رودريجيز
عنترى
تطفيش
كلمتان
يقيمان
حاطوم
##mb
حسو
يتمرد
إليكتر
##ابتني
فبرك
واعتبر
##ةوز
لانهائي
534
افترق
تأهيلى
اولا
##MC
##يلف
عرم
ستصبح
ننافس
يلينا
##باى
تكل
تبخير
مهناء
سونيكس
لايملك
تاء
اتهمو
Gu
ميريا
وارى
تطبخ
انجابي
بلاكبيري
##بورد
كاسبر
##اولي
متصف
سارى
##ator
Arabicبالفيديو
فظاظ
أبوالسعود
تقى
تستقيل
هولاكو
464
665
شيكاجو
يمتدح
مزيان
##نغتون
Aut
فوف
هس
ماأ
همدان
تتواءم
ملولي
روكز
##ثبت
هاز
استاء
زراة
3400
البرغ
مسنون
غينادي
مقلع
تجهيل
بارو
سعداوي
استغن
لفق
أكمام
تدون
نهش
أهواز
موغيريني
فيستر
مرقب
توكس
سبكي
##ision
انهزامي
أنضم
ونش
فرنش
فينس
ايفاد
حالتان
اسد
أحلاف
اتساب
ماذكر
ترفق
لبنن
اردن
ايهام
يغار
أرجواني
يعطون
روبيرتو
البرغوثى
يائ
لاتف
عبدالحي
تيلكوم
زلماي
ينحني
انترناسيونال
##باطي
715
نفرتي
مبحوث
تيش
##تاد
##جنى
يخط
بهمن
آحاد
لآلئ
##سيني
عليمى
يعض
أفلس
##فاءل
تلكم
مانموهان
أذري
488
مدفأ
انجليز
كابيتول
محجوزة
أفتخر
أناب
عنبري
موالد
سعادتنا
علاوى
ننتقد
res
عبدان
مغبر
زيارتين
صاروخى
انفراط
##مب
اتك
أحافظ
سباستيان
إيذ
تنفيذى
إحماء
طباعي
ابشع
استقواء
شتيفان
كولونيالي
ببن
مثلوثي
يدوس
بارغواي
يوتر
افقد
تابو
##DL
موزام
مدق
مشوح
عايب
خابور
يقدس
تهج
996
زوابع
ينحرف
عطارد
انموذج
مهشم
داودي
عشتار
531
موريسمو
se
جاحد
ياليت
عامودي
تشاب
دعك
مفاتن
سونار
قرطباوي
اقول
تكريمي
داعب
ذبيان
أناقش
ترقق
مفدال
يسقي
خليص
غيتو
كفررمان
أضن
أنجيلو
اقع
بمد
يزابيت
خسرو
سهيلة
اتكاء
مشغرة
ناغي
صفري
##شنا
##ليبى
449
غنوشى
افراد
الحاح
مشيقح
خثلان
راوى
##كشن
جامو
بوظ
متنام
ميلز
نأى
542
افتراس
شايفر
833
سمرق
رتي
##انسك
تحجم
كناف
حمائم
كفرتب
صاج
هافيل
تنصر
يتواءم
##تباك
اجلاء
بواكير
اغا
مرتدية
هيروغ
##ستاين
أشكناني
ديشان
لاست
تأسر
عربص
جاذبية
بهلوي
مهلل
يرخص
ديختر
بيروني
بليك
##iew
أقتل
لاإر
بوركيني
كفرتبنيت
##ومب
مستقطع
مختومة
تقليع
إسكندنافي
مخاصم
تطوي
انساق
بيدرسون
هارلم
عريب
تربو
اصغاء
يتنازع
ويلك
ag
آندي
##واك
منيس
519
##oint
فيشاوى
آثاري
خلاوي
تصبر
حلوتس
بيروزي
زعفر
بثق
بكرا
روتش
##ull
ماتع
استير
ناكام
أطهر
متساهل
فصوص
شومر
نحصد
كوافير
##مونت
متضاد
AP
مقوي
مستلهم
مؤسسو
كورني
498
ميكروس
Eng
##اكيان
ممت
نيج
يلوث
دهيم
كورت
466
461
يتخط
ستاليني
قائدى
يناصر
لايجوز
أسوق
كانتو
برتران
ارامل
##هيار
رجبي
حملاوى
ميلشيات
##اكيز
عربصاليم
يتحضر
تيكس
قرعون
Website
##vent
فيث
ألذ
يطهر
كوبلر
تظلل
sms
يناط
مايف
تيجاني
كوليدج
Kh
هايب
##افأ
مستذكر
477
تتباهى
##ابغ
تتدرج
قيت
1373
##ناو
خالدى
اورليانز
إيكونوميست
تعدم
توزر
يتوخى
سيروت
اداب
موند
ريناتو
سكيت
ولان
جدع
ايذاء
عبوس
صحفيو
شواغل
أوصياء
سيسا
Su
أظلم
جالا
سراق
آرام
رابض
تنحسر
يتجولون
قساط
جنوا
ايال
ارتو
إختبار
544
تنفسى
هيدروكرب
هيدروكربون
Tr
##اجق
يستق
النيباري
مبايض
تهاجر
أملج
ديسك
إطفائي
اعبر
نعرب
يترنح
لينون
خفاجى
عنقي
##وتري
مضمن
فلج
أتاسي
غمض
هذلي
مترق
تدحرج
تاهي
يعون
اعضائ
اخفي
مضجع
قرنق
523
##زيلعي
فيي
ينازع
مشو
نفصل
لوغان
معدو
##سلر
افشال
522
685
داسيلفا
أطفأ
قاط
إيه
##دريت
تتناقص
طارش
645
هورن
يشتركون
##يسلاف
عمو
أستمتع
سحار
أسكتلندي
بالى
هضي
أعمام
مخنوق
نفزي
##اثف
يرسي
تستح
فقرتين
فرنسبنك
فايننشيال
أكفان
قطور
بوسط
تنفك
يتصلون
يهنأ
دندي
جوسي
مسابقتي
عيترون
ضحال
439
لامبيد
1403
أنتي
قائمقامي
يطاول
يهوذا
ES
Pr
شتر
محى
يتقمص
عتاق
سافكو
نمنم
pe
اميل
الزيلعي
طربي
قتلي
إقتراح
شاورما
he
ذلل
مكتف
تبكى
نوصل
اكمال
تنحرف
بوغوتا
كلش
أبخر
مزركش
شنغن
عويمر
بوعبيد
مغاورى
ماكريستال
آهل
بنمي
أكلاف
تتدلى
قادي
تنغ
حالوتس
تسيبى
بيلو
536
هونيس
مدبب
مرى
تقديرى
يتحمس
تورت
إفهام
جوزيبي
Ac
##هجن
مودريتش
تغذ
ايزاب
ادعي
ستراوس
مناجا
استجلاب
##اصيري
يستكشف
شيرر
اطلسي
نتفاوض
مستفحل
te
أعذب
قيوم
مدرستين
زعير
هرتس
بربار
ياخد
رمم
غزلي
طراونة
كورونيا
زوران
Inter
Hy
ثمل
##يموف
أورال
حجير
ناديى
داعشي
بوليوود
مضياف
ستح
##فيو
يوش
عزوبي
هويتي
Art
فادى
##سه
##الوس
نعترض
446
يثأر
1397
مومني
بباجة
بباجةغدا
بيتلز
إستطلاع
this
سينتهى
أيم
جفال
سدو
##ستوك
انى
تنهش
سبخ
يستول
ردف
فلافل
فيرن
يتناسى
556
1862
باسيج
سليس
##غارد
ليونارد
نجراني
مرامل
وقتما
1401
ودك
ننتخب
##خور
##بوري
##book
اعشاب
تبسم
تستهل
ناشونال
##ارتي
أرتال
اعاني
##صومالى
روهينجا
ضبيب
يعلي
بطم
مهندسى
شعيا
الصومالى
##ونيم
شهال
اقليمي
بقيع
إنتقالي
اكراد
لواندا
GPS
عابس
فاع
أنفع
استلق
لايز
توين
تراتيب
اشمل
ليندس
تمدين
نوتنغهام
عذارى
##ماين
اوكل
كيدال
قوقازي
بلمار
غلى
##هوني
مغازي
أغن
هجليج
يؤكل
استرسال
469
##itt
بيترو
تعتدي
عقربي
اظن
كعيد
##تيغا
مياس
تستفد
واقعتين
ارتضى
لبق
##نصر
##of
متخبط
قطيش
سمين
التقائ
معداوى
مرفه
هودجسون
##طهد
دودج
ناوي
524
غنطوس
تحبذ
عبدالمنصف
يكسو
Ant
دقد
منخر
##الايا
##ريشة
يهوي
صارح
نستخلص
717
أتلان
تسألني
كامرون
بكا
رتوش
بعبع
كتالوني
عباي
##انوفيتش
مساهل
تحسر
ملول
##شتات
12400
قدمن
##نبأ
انتقم
526
أوليفييرا
أوجز
يلاق
قمبر
لايتجاوز
##اجيء
خادش
هابر
تنسا
مختوم
أورف
أحراش
##زرفر
اهم
كارتوني
يحملونها
481
563
ريدناب
دهمش
مضل
محرف
##بلز
تصطاد
احبك
نعطى
منيزل
فلورنتينو
خوز
فام
اتابع
نتخ
اعتبروه
خفجى
يعتصر
يقرؤ
شاليت
نكل
هارى
عادة
متعاف
فوكوياما
ثادق
راء
مقوس
##لاله
يتقلد
كماش
قنوط
فيومى
زعب
قاي
الاخ
فيتيل
إمتحان
مقدمو
أوتوبيس
1856
مرصوف
قساطل
##ضياف
إدكو
كاتالوني
زنوج
##وجلاس
مضرج
وادع
هايدل
AU
طريد
عرادي
برف
تخديم
##تونا
سقال
##يوس
مايزال
عرفى
فاندرليم
##ضطر
جزيني
أورث
دينام
تحريج
مستوفية
كدي
موظ
أفطر
##دريك
إستخب
راشدية
هورنتس
موبق
أروي
احلم
تطفل
أغل
ابوح
467
ثمال
أناجيل
##مدان
##تنام
عبيدلي
اجرائي
شماغ
ماساشوستس
فايل
لآ
مائع
##تهي
##حذ
سيبر
تسفي
كاونتر
هيروغليفي
##توز
##سبي
متطاول
مالكولم
يتفوه
كهنوت
ملساء
IT
MTV
##شكل
فياجرا
تتعقد
ماسنجر
يبذلونه
##ادوس
##اهدى
مغازى
537
روبنز
سيراليوني
تليم
لرب
أزهى
نخشاه
##ise
هوتسبير
طوبى
أقبح
سكاى
نيللى
479
جلا
لتشيل
معاند
أبور
1441
يلصق
بوشناق
تربيط
أتلق
يقتضى
نخدم
تخمير
بيرت
فضالى
دمرجيان
##uper
باغت
يبيد
ترمس
أيالون
تتال
زيب
##تناول
كامروني
##رت
##عير
##غاز
نحرم
سألتني
##ative
اعدائ
بلهار
##وبولي
مكيد
اهلى
اسرائى
##جواي
نابود
إندماج
مستطر
هوانغ
كفاحي
انفعل
شماخ
احسائي
متساكن
عوكر
##تصام
أنصارى
ينصت
أوبن
##برجر
جامبو
إبريق
فتاتان
أرياني
تعسفى
الصليبى
منان
منحي
مرئى
##اتوس
عراقجي
يقتطع
552
##يسترز
أنزور
حواتم
ذهان
عاطفى
خدج
غوستافو
AN
خاي
دهي
سكوبى
3700
تتضارب
مشترع
جويدة
نخفي
517
لويدز
##سلاوترن
##وشرجي
هاتش
ماتيل
أوصا
مستيقظ
غنامي
فولاذى
الشرن
Rf
هكس
عربيات
مهجري
بحبوح
أورانج
ابراز
يضل
يتني
حلاني
1595
أخذو
1406
جست
ضدى
علال
نيني
تنميط
يتعجب
ريدينغ
صربى
هيغواين
شينا
طعيمي
##ضرب
انزال
##اسيد
يتوب
##نتري
سردينيا
ستاربكس
اناق
تعض
يعلى
معلمي
##اطية
بوروشينكو
افساح
صقير
##ةالأ
أنمل
##اتكو
يعى
آسيوى
روتاري
أوبرالي
ماحول
طاغوت
Cap
أذار
##بدان
تتعمق
##تبارى
اذواق
كوتي
شئتم
نتردد
دبدوب
##aid
الشيح
ماكسي
بارتي
يورغ
حرفوش
بؤساء
نيوزيلاندا
يعطيني
يعيث
اوكسجين
عراجي
قريت
متواز
يحتدم
521
اكساب
اسكتش
##ناز
##ومتري
يقحم
##قرط
سقار
مستطردا
نطن
مراهم
أسيد
##وليف
تكبل
أجلاء
##وفيم
بعدئذ
ارهاب
المعوشرجي
تبادلية
آمان
دوجلاس
أرنست
تصقل
كسرواني
##oun
برمودا
باندا
غيان
قريح
لزج
إختصاص
##هزئ
افعل
هولمان
775
زنق
نوريتش
نيبوشا
اعراس
GT
##ren
واتش
##ندان
يمكننى
شكوي
جنسيتين
كوكي
قطارة
شمبانزي
إجهاز
نيتشر
##سترن
612
داهش
Glob
ليندساي
زلال
ريعان
اجاكس
##سكع
تسمر
جومان
غنتوت
يستس
ركبتين
##رينالين
لومباردي
##تما
##برون
يعاين
صفاوي
مضبط
ملاوي
اضافي
استشراقي
معتقلي
سكورسي
انحباس
max
يراوغ
اهالى
1849
لشرك
أنيلكا
نضح
##rand
##موع
مناسيب
تقلا
##001
لواج
صعايد
516
روتا
فرغلي
تبادلي
فتيحة
ادمان
يتبدى
##ولية
إيرل
اغرب
ضميري
حذيفة
##let
##ody
كارنيه
بهى
أروح
صلوات
مذن
شعرائ
سيميوني
##واف
##ساني
تربيع
497
متخطيا
ونى
كلابي
##ازا
اميركي
يوارى
انفي
u160
مسارب
مقوى
تواري
بلف
يتدرج
##مندريت
أخشا
ايتام
ذكرني
يحتضر
تخييل
##سمع
تأملي
كرنتينا
يغمض
يلقن
تتآكل
Bg
تانغ
سوين
فواخر
أمادو
##اكون
سباهان
تسفان
اعين
مليل
##لوبين
بنتلي
اليكس
منهزم
ليندسي
ديمبسي
مواويل
مدسوس
##اكني
تصوغ
474
511
جومانا
لاسلطوي
بشيكتاش
فيخرج
مناجير
موسكى
كنو
نوروز
ضهور
1857
##انيين
يستاهل
##كيدا
جاكوار
مشيخي
ذكورية
كتاتني
خنيفر
ومى
مراجل
يعرج
##مينا
افهم
تتحالف
##ars
يتقرب
أوميغا
كليمنصو
وغر
##الإ
هيوم
عديسه
لربما
يولى
##CI
##وبير
وسخ
تنتفي
عقلن
لازيو
نشوان
اربد
لأنفلونزا
##وزيتش
767
ليوبولد
يذيع
معذور
قرميد
سندويش
بوندستاغ
طاجيكي
ياغ
أكشف
مهيني
طيلة
دربك
هاييتي
إستغلال
Bb
مصايد
##تحاور
##اذف
ناسا
لوفيجارو
Mon
##يمبا
أروم
سنار
تتأسس
عرجاني
أوربى
1550
رعاش
إسلاموي
496
يستثمرون
تشم
تشحن
نعاهد
1845
يتعاظم
متعجب
تتوضح
727
ازي
أنيط
أختتم
عبدالحق
##تنامو
ابصار
ثرائ
مازني
ساوثهامبتون
اراء
اذربي
تواطأ
##فرت
تكترث
جراهام
ركامي
مبدإ
تتكثف
بوكيمون
رقيطي
تتفرج
##LS
سماعي
##اتيا
بشت
اضطرب
زوكربير
خثعمي
زبار
نلقى
يطيع
أندورا
أحفظ
غرائبي
ماريك
تترشح
مولدافيا
أتمني
##oD
اراب
وساوس
HP
لاكور
##فيج
تجهد
إيوائ
كاراد
عصرنة
متقاعس
مرداسي
##ليد
هجا
بلدية
مذيل
افسد
احتراب
موبكو
غوانغ
غوتيريس
القص
وجز
متعايش
ابى
جثام
##تصم
عبدالحافظ
هوليوودي
اصدقاء
President
نجود
تخاطر
إيفانز
كيبك
فهل
ياج
##فنج
شيطن
يكتسي
رمضانى
تصدح
إيتاى
إنديان
سمعتم
شقيري
ألكسان
ماتورانا
فيقولون
استزاد
ناك
تقزيم
احلال
##ثنائي
ايتان
كريج
فتاوي
472
مطبعي
ديلما
غلاييني
جدر
##ازار
أدما
بيرج
بيرزيت
إصلاحى
يتناقص
جيلانى
كاتال
فرانكفوني
باستيل
ABC
##ضاب
يقترع
مهتز
نيازي
ربت
صدوق
##واترا
يتعطل
يتناغم
تجدون
خفاجي
فاشر
أحص
1680
يورجن
بريدا
سحلي
975
برودوم
Wi
##CO
تقسيمي
يتعمق
أرسين
عطشى
548
يهرول
فلق
يكلل
##اراس
تصحب
مستشارو
يمارسن
تلعثم
بهرام
تانيا
##IG
جابون
أذناب
Per
توانس
حصي
نباح
ادور
اكاذيب
شينوي
زفة
تندوف
راما
ياه
معاول
ونستون
تستغني
708
فايبر
##umm
خميسي
اوفياء
نرق
##وروف
أوديس
إنهيار
أدع
##وتشوف
ناكامورا
هيدروكربونية
إنريكي
كلتاهما
بعاصيري
نقابل
مضايا
ميند
##اينر
شقائق
586
روزن
روزالي
مطابقة
أصدقائى
##ournal
هتل
الاء
تصحو
ملاديتش
يختفى
483
وأب
فذلك
رءوس
يويفا
تثر
جالب
##يلم
هوري
نظف
أبعث
تكد
عشراوي
التانغو
فلائ
اصيل
كابور
شبيجل
دز
سانج
سآ
اندلسي
اربعمائ
امنح
LED
غاطس
معوكس
مراكم
1380
514
995
مخطوب
متلويوقع
تراتبي
##ورون
1812
4800
كيميكال
باتريسيا
مارتشيلو
حنت
اقتفاء
جراغ
##اخد
صنداى
متجرد
فودري
It
tra
عويش
انا
يتبرأ
نيادي
نمير
سواز
##يسيا
تلقب
بيلبورد
595
يهمش
كترمايا
دعبول
Pre
عرمون
##أسلم
546
ينحو
ياص
##xg
يحبك
طبعي
بوات
سيرورة
صدرى
مطارح
735
جابرى
رانييري
سيلفستر
شخب
سلاجق
جهلاء
مغزا
فرانكي
مارب
##اتز
يعفو
اجتز
لوثري
يوازى
##هامسون
اسلاف
1854
معاداة
##اسيونالي
سيروتونين
بهدل
##ةع
عليش
يتوارى
تسميد
تلكو
نتين
ضرماء
ديالا
طبوغرافي
رفرف
تيج
678
كاهيل
ID
##du
##لينا
ماتري
سيزر
مبزع
حراشي
ممجوج
يسلي
ألمس
ركي
انبط
ثرثار
تعاض
اسهل
صفحتين
تالين
عجيمي
زئي
مقايس
مبادي
يقاضي
1839
901
553
ديلويت
تفقه
ماغنوس
فواخرجي
SU
تظافر
سكل
طيع
منتفض
إيزي
بوضياف
كميخ
##نسحب
اجرامي
تندثر
comp
إيزيس
فارن
##ven
محيل
تبيض
عومل
شركس
لحمي
كايسي
##كمي
أنادي
##ودكور
لاكت
واتفورد
لياج
##وميت
فعلتم
1101
يطبخ
سخف
سالزبورغ
##لفين
ضرائبي
بلغار
مثيب
اكرم
إيثانول
خيف
طائفتين
نتأثر
جرافيتى
هاغوب
موشن
ماتير
بولارد
أذكار
كايزرسلاوترن
جونزاليس
طالح
علوني
تتقاض
يتحرش
تذكرني
أسيك
تولستوي
ينساق
جغيمان
sy
تتمر
خنف
خواتي
ماطل
سيكو
1228
##سالا
اللام
##اساني
تكبيد
أزواد
طعيمة
##ثلاث
فيند
خدمى
صنافير
اسمهان
اباحي
Business
بسب
##ؤن
مرابع
نعامل
لافى
جيلبرت
##raph
نتعاطى
ماكاي
استشرى
##خدمي
أشقاؤ
مايمكن
شائق
##دت
مجور
مماحك
مورن
812
لأسر
بلهارسيا
مرثي
##يمر
مفارز
يرعب
عوزي
متعنت
لوند
متشوق
زواري
1404
إيفانكا
داكا
طنان
ميكل
1814
فرداني
إستئناف
نلغي
كونيتيكت
وسيع
##وميان
ارجل
وسن
يكابد
إستوني
خنين
col
total
آرك
تستريح
خرجي
جلاس
تكتفى
قبرصلي
##غنيسيوم
يتعدا
عدني
قمقم
##ظفى
اقربائ
Bar
BOT
##ner
استولي
أخفت
##مساوى
رجائى
مراقبى
##اينى
سيسون
برعشيت
Group
##يدي
يأذن
اورا
بليهد
وولفويتز
جوشوا
إنتح
يحير
تهاو
قلتم
اسانج
##جمهر
ابخ
يعانيان
##صة
##يروف
##ميلى
إسك
ايتا
اشبيلي
ودب
يحذف
حراث
##udi
مدخلي
الصق
أوبي
مشم
تنتفض
أره
شبعان
يجاوز
##زلر
ينتشل
باتنة
اتهموه
614
يقظان
إرتفع
عميش
لافي
ناشب
روينى
كوندي
خريفي
منضو
##انها
متحاب
كافور
جولدمان
##وشو
حلبج
كورتيز
ألى
مدائح
كلييسترز
##جيرالد
هرفي
كرباج
اريزونا
عابري
خويلد
عسال
فيقرر
مسهل
بارام
روحانا
فرجاني
636
##oss
بروبيلين
اضل
أوليف
##اطوني
شرجي
أحشائ
بيبو
##افقوه
ستست
فنيو
رويح
نهرو
شرعن
جيبسون
بريميرليج
##تانيوم
##ذري
##وجلوبين
كيز
قارص
مولدي
ننهض
راميريز
حاملى
473
##فوك
فرمل
تشريق
تبضع
تلذذ
يفتي
تزهو
بيرند
معتوه
492
576
بوسعيدي
تتفادى
##ade
IBM
رميد
##كارا
##غنون
سوسيداد
متناحرة
صريف
##توي
##ادوف
أيمي
تسنيم
تتلو
تتبدى
جواني
سانغ
مريديان
يختبئون
اتوقع
مردم
أراقب
تتهرب
اقاويل
تورو
فدى
##IL
##ايح
بيوس
نجزم
شوادر
رايكارد
642
Qd
مشانق
مؤاخذ
هيريرا
As
Mus
رانج
انو
متزلج
عروج
نصرف
بولنت
زملائى
بقعاوي
اشتيوي
برابر
قيظ
يورط
تياجو
عدوانى
اولمبياكوس
بالميراس
فبإ
ضباع
مواجع
بلت
يعيل
تشريعى
618
داميان
داليما
اهداء
سمرقند
يغل
##حاح
##ابين
ينهون
دنك
يسرائيل
زاجل
بروين
2023
مزبل
مائت
صلصال
482
يضف
471
اعطال
بدى
سكريب
عزاؤ
مرفوق
639
كيندي
##ople
باستور
وايزمن
##rist
يحشر
باتش
زنجي
دحمان
جنجويد
##وردي
تحن
ميدانية
امتثل
نقرس
##pped
كاسباروف
##امار
مودم
مسترد
كلت
أعتد
ستنسحب
حبى
سويوز
سميراميس
815
بصيل
كرامنيك
مستحكم
النمساوى
اوح
ايقون
ستظهر
##تفاعل
دايموند
بادغيش
كونفوشي
لاعود
أرميتاج
ريبيكا
تعاضدي
سليب
مستس
##وفل
نسائم
متواري
أوليس
أتحاد
نربط
##رئيس
خلك
سبيع
ماتر
يره
ممازح
شريدي
اختيارى
غلوكوز
جيمى
1409
فريز
كاشير
سيغولين
qu
ينهش
حصتين
شيرمان
573
آزر
فجاج
نبعث
الفاف
تجابه
##تبى
دعائ
تبوح
تلصق
حواط
بانغ
هولد
ابوم
أولمبياكوس
554
متلاطم
مكوكية
إكل
مواقد
بيتز
تصنيعي
نستوعب
وثاق
يردن
اكرام
شيناواترا
EG
##تاوي
##ضوب
مدبلج
شفاؤ
تموينى
فلوريس
منجل
##ادس
##اتوني
مهندي
##وصور
رحمي
705
CN
لاعل
وقد
ريكيل
ملوخي
علاقي
حفصي
يأسر
اختام
منحصر
نستن
إستعاد
حمراني
قسطل
أسكندري
الحمدلاله
تحجج
ناكر
هدهد
بورتر
مالكوم
بيعي
##وليو
تطيل
يستدع
سدن
يتبخر
زرك
شرقاط
##ادىء
جعلنى
جياب
يوليوز
638
فلوريد
قرمزي
خريبكة
آلف
شوري
فيديل
صحبي
رسغ
احتوا
غزواني
زينو
ليبرون
##ute
نيفاشا
بياتريس
عضياني
##ريزي
دوللي
دونباس
ارتضي
##تنج
##تشكوك
سنيدي
هارتلاند
مكنس
دهماني
نافال
##بايور
نقشبندي
مضاربي
دافنشي
National
مصطفي
تسو
رييس
أدور
نجرب
أوغاسابيان
622
994
يوسا
##ليع
يتذيل
تفليس
أميركى
تشيكو
حاملو
تواصلي
زئيفي
اقلاع
هايدر
مباه
بيث
حملي
سيرفيس
جوعى
##ouse
جاوي
قشق
انظار
اناشيد
اذلال
##ane
عازوري
يوكوس
نشكركم
لموظفى
تتبن
نواقل
كارليس
طعمي
بايرو
925
##els
فأجاب
يتمركزون
SNG
اوسي
##300
ينزعج
أفذاذ
يهان
558
661
تتخلف
##work
تنثر
يحج
تستأجر
حواشي
يتراءى
استحصل
باهلي
يتحدون
nav
مضاوي
واص
##ستاد
ميلودي
632
لاتتجاوز
##lam
نايجل
أرتكز
du
بامي
ارش
مغالب
551
منيرى
دغيدى
##ميك
إعتصام
1260
ساحت
يتحسر
ادري
إيفل
يتخوفون
خواتيم
One
موائل
اشخاص
نداف
يخصم
لاتست
عاجب
مخاط
ايت
رباطي
نساند
سكوبي
يختر
##357
انبهر
فوكوس
يكسل
اشف
تشبيك
نعماني
إستي
انجلي
خوالي
يوتاه
3D
Qc
مقطر
والدتي
عى
##EA
##ازة
##بيرت
إخاف
##lex
برودواي
تجرف
جناينى
بلدوزر
رجاح
عيناتا
صدح
فلاي
ارفق
##مائى
بوروندى
صود
تدقق
دراغان
شبابى
رعائي
رامزي
1407
بيفرلي
معتنقي
متعم
خطاف
بارتيز
نطالع
588
ماكليلان
بلاتوه
زنيدي
عسيلي
American
زمار
عجن
تحين
بلهاء
مطامح
آوان
ببا
صميلي
غادي
فيتر
##تبوس
ملأى
نته
##atch
تليد
مارتينز
News
لائى
وافا
تنشق
تثمير
714
سولو
ثمينتين
اوتو
مواسي
##يمير
برايتون
يشجب
ميللر
نبرو
اطن
كلسي
##ler
تنمر
سيبو
##اتورى
نفث
احباب
##ميدا
غلاس
آرييل
LA
ناثان
مبالي
نسافر
جياني
متعجرف
577
بيكتشرز
فسد
##ريال
##ابن
##ستك
واغاد
##كونور
إخلاؤ
ذرى
فيغارو
تطع
تبجح
571
MA
ادير
اواني
##وليم
دينغ
متدلي
مديفر
إكرامي
ومرافقوه
##اتيس
صلني
إسلامبولى
فيرجن
إستثناء
تهيؤ
مغيث
زغيبي
رسي
##كيدي
ليتف
أبنوب
غيطاني
مناهل
سوليفان
ببور
وغا
المان
محبي
نقار
اساليب
##eral
كيروش
عايل
##tr
صنبور
قلندي
استطال
مستحوذ
1858
تصويتي
ترنح
سايح
سليانة
قىء
ماورو
زيا
نتلمس
تحفيزية
616
مهداوي
بذالي
1798
بوط
##يتى
هوفر
أخميم
حبور
جلوبل
شمخاني
بالوع
لمسئولى
رزوقي
##399
مايتعلق
##فام
عنهم
##ايكر
يحتار
يدس
أبوش
يتمتعن
تتأتى
هيلث
##وستى
##lement
تشيللر
لاإرادي
كلس
ندام
##جعل
احرف
تغط
نوازل
سكاكر
جاءت
##بطن
استرسل
هيدا
الكن
ستشعر
يكبح
تقتات
624
مبتغى
كداش
فوسفوري
أنسن
##تمونا
1411
إلتح
شحوب
ألبرتا
جاج
تنهد
قداديس
نحم
يجير
اهمل
صاه
تحقي
كلدان
يعاب
تدحض
مفاهيمي
التهابي
حصاف
غلوريا
ازع
##حة
##بيز
متذمر
كندرى
1636
جلخ
غوريلا
تاد
تنضب
أهرب
قصبى
فتتحول
637
كوتونو
القائ
انوث
أمثول
ماجاء
تبغي
تغتفر
صرار
##تصدى
فؤادي
تحذف
نتفاءل
استوحى
داتش
هكتور
مبجل
ديفيا
##وقراطى
557
لفائف
انطوى
ماقدم
up
اخلص
##uk
همداني
##اتار
اجماع
أمريكيتين
رمش
نستشعر
مقعدى
التفافي
##olution
افراط
بيلاروس
##فيدي
اعرض
تهون
ديموكر
عاشو
واغادوغو
بلاه
إسبر
مبطي
اراك
يكتم
##مينى
جلو
جسمى
مارديني
نغيمش
mt
تسور
يؤتى
اهدي
لبو
##امواي
بوندسليغ
وغد
##aj
##ترود
تتقاذف
جهان
جيوغرافي
يضج
بايزيد
اضحك
متعل
أكلم
حفاض
بورو
سركيسيان
ايفانوفيتش
مهاترات
نطنز
تزهر
كوتبوس
##جيليتي
باجيو
أعزب
##اتيلوف
اديم
تشاي
حواجب
اختلس
توربيني
كبريتي
ويش
##لكى
اسماع
##بانيا
فلير
تتألم
تلمود
مصطب
مقتحم
تنضوي
قطا
تكفر
##وكين
1832
سانتو
مستذكرا
Pri
ضامر
لبر
درند
كراتيه
تستوقف
أحرنوت
جيزيل
روبسون
انجوس
وبائى
##سيز
ادلاء
يليس
مملا
وتائر
جاورجي
إنضاج
حات
##نيكي
سبك
طبال
1821
حبابي
خضور
إبداعى
دومنيك
أديبايور
##8969
يجنح
جونزالو
متفحمة
شاحاك
##تاون
فييرى
كلار
أصور
##وشوب
541
##كاتس
رولينغ
متذرع
عبدالظاهر
حركى
##اوزن
جونينيو
604
جيلو
يحتقر
عريجي
أسيء
شمروخ
كوفنتري
دبلج
ياكوف
Qe
أطار
زباني
نطف
##ندرا
##PC
تطوى
مينى
منطوي
حاصد
فيضطر
كفلاء
صليلي
أخيل
ركح
صلبوخ
يانز
الجام
مستدعي
كفرشيما
559
دميثير
سبيعى
يلملم
اقدار
شراكي
709
##غرافيا
491
##كالى
##غوم
معاطف
ترخص
أصرخ
تغفر
فقاري
هاردي
اجرائ
دنيز
متراصة
زطل
اتطلع
ذلكم
حروفي
##فلر
نساؤ
نورهان
جارحى
هولدر
بونيودكور
جاورجييوس
كظري
تمشى
جرجيس
وظيفتي
##نراست
مستدلا
AR
##هاى
##ero
##تيج
يمون
خبرائ
جائزتي
متحمل
جودى
بوشك
ارباع
pol
رها
##يو
##هت
مطمع
سيريل
فوكلاند
كولمان
سالونيك
ديناميكا
إقل
حالب
لكون
منطار
##كتاد
نجتهد
ميترو
عباب
احتك
زبادى
##قتصر
بيضا
حفائر
بغال
##نبى
دربال
اطول
تبتكر
عميمي
يعجبك
وستمنستر
شوتايم
بريشتينا
مصان
وجوم
تخشا
سراى
إستهلاك
يتسارع
##اوتش
اكسج
انهماك
الاخاء
وقب
شظي
نتشارك
Archives
Euro
مدكور
براغي
قدموس
حميدى
باحمدان
مرشدى
زفزاف
عنسي
درد
حولو
نبادر
تصنيفي
تعبأ
إنتقاد
نانومتر
اوليفييه
معولم
خزعبل
موهوم
انتو
##يريج
غزول
جلعود
لاحم
خليفه
تيجالي
اوروج
كيبكو
باميلا
##ترافورد
خاشع
الجاموس
SC
أظ
اوان
سهي
##لخ
وطواط
نياف
كيلر
##ينغهام
ميليسا
إنفست
شتيوي
لاعنف
ستساعد
بتروسبورت
دافي
ههيا
##oot
متوطن
قرام
وجن
دايس
امبر
امتص
دمعي
1837
حصلن
سماق
##دسور
634
633
##xd4
ميركافا
اجحاف
اراج
ليام
عقبال
[...]
